[PAD]	0
[UNK]	0
[BOS]	0
[EOS]	0
[SEP]	0
[CLS]	0
[MASK]	0
..	-0
...	-1
▁'	-2
▁"	-3
▁1	-4
▁[	-5
▁이	-6
▁사	-7
▁2	-8
▁‘	-9
▁대	-10
▁“	-11
▁확	-12
▁전	-13
로나	-14
코로나	-15
▁수	-16
▁공	-17
▁3	-18
▁정	-19
▁선	-20
▁코로나	-21
..."	-22
▁지	-23
▁아	-24
▁김	-25
▁시	-26
▁의	-27
▁오	-28
00	-29
▁확진	-30
▁주	-31
▁신	-32
19	-33
▁부	-34
▁발	-35
▁중	-36
▁기	-37
▁최	-38
백신	-39
▁경	-40
▁추	-41
▁한	-42
▁유	-43
▁조	-44
▁가	-45
종합	-46
▁국	-47
▁연	-48
▁4	-49
▁재	-50
▁미	-51
▁서	-52
▁박	-53
▁5	-54
"...	-55
▁없	-56
▁인	-57
▁내	-58
▁고	-59
▁여	-60
▁백신	-61
▁일	-62
통령	-63
▁제	-64
▁등	-65
▁무	-66
▁감	-67
▁강	-68
▁비	-69
석열	-70
윤석열	-71
▁폭	-72
▁검	-73
▁구	-74
▁안	-75
▁논	-76
▁위	-77
으로	-78
▁서울	-79
▁불	-80
▁소	-81
▁영	-82
▁접	-83
▁방	-84
▁첫	-85
바이	-86
▁상	-87
▁손	-88
▁우	-89
▁결	-90
▁출	-91
▁후	-92
▁美	-93
▁성	-94
▁6	-95
흥민	-96
까지	-97
▁개	-98
▁모	-99
▁반	-100
▁거	-101
▁나	-102
▁다	-103
▁마	-104
속보	-105
▁세	-106
▁투	-107
▁해	-108
▁진	-109
▁만	-110
▁법	-111
▁7	-112
▁자	-113
▁접종	-114
▁실	-115
▁하	-116
▁의혹	-117
▁원	-118
▁집	-119
▁것	-120
바이든	-121
▁S	-122
▁도	-123
▁보	-124
▁문	-125
▁있	-126
▁피	-127
▁논란	-128
▁총	-129
...'	-130
세훈	-131
▁징	-132
▁사망	-133
▁어	-134
▁동	-135
▁학	-136
▁20	-137
▁신규	-138
▁장	-139
▁차	-140
▁화	-141
▁오늘	-142
▁남	-143
▁직	-144
'...	-145
▁손흥민	-146
▁윤석열	-147
▁승	-148
럼프	-149
▁10	-150
트럼프	-151
▁8	-152
부터	-153
▁교	-154
▁추가	-155
▁대통령	-156
▁배	-157
▁취	-158
▁변	-159
▁입	-160
▁살	-161
▁통	-162
▁돌	-163
▁또	-164
▁스	-165
▁계	-166
▁예	-167
▁파	-168
에서	-169
토트	-170
▁사과	-171
대통령	-172
토트넘	-173
▁9	-174
▁임	-175
▁현	-176
단계	-177
▁확진자	-178
··	-179
▁증	-180
두기	-181
···	-182
▁공개	-183
▁바이든	-184
겠다	-185
민주	-186
리두기	-187
20	-188
▁관	-189
▁노	-190
▁판	-191
▁국민	-192
▁양	-193
었다	-194
▁정부	-195
▁한국	-196
▁앞	-197
▁올	-198
지만	-199
000	-200
▁광	-201
▁매	-202
▁협	-203
전문	-204
해야	-205
▁금	-206
▁당	-207
▁명	-208
▁포	-209
얀마	-210
에도	-211
▁역	-212
▁허	-213
국민	-214
”...	-215
▁서울시	-216
▁오세훈	-217
▁단	-218
▁속	-219
▁적	-220
▁청	-221
만원	-222
▁감염	-223
▁K	-224
▁L	-225
▁초	-226
검사	-227
낙연	-228
▁발표	-229
▁피해	-230
▁트럼프	-231
▁A	-232
▁리	-233
▁분	-234
▁외	-235
▁탄	-236
▁합	-237
▁행	-238
수처	-239
▁검찰	-240
▁없다	-241
▁토트넘	-242
▁거리두기	-243
vs	-244
▁언	-245
▁요	-246
▁윤	-247
▁특	-248
▁회	-249
삼성	-250
영선	-251
의힘	-252
▁경찰	-253
▁본	-254
▁11	-255
▁검사	-256
▁만에	-257
▁없어	-258
민주당	-259
▁누	-260
▁측	-261
▁징역	-262
...“	-263
▁文	-264
▁넘	-265
▁산	-266
▁심	-267
▁않	-268
▁친	-269
▁이재	-270
▁후보	-271
▁미얀마	-272
▁격	-273
▁더	-274
미애	-275
스크	-276
스트	-277
하고	-278
▁수사	-279
▁시작	-280
▁이상	-281
"(	-282
▁그	-283
▁급	-284
▁달	-285
▁못	-286
▁생	-287
▁충	-288
▁코	-289
▁호	-290
개월	-291
▁선고	-292
▁징계	-293
▁최고	-294
▁이낙연	-295
▁맞	-296
▁종	-297
▁항	-298
도권	-299
▁구속	-300
▁숨	-301
▁참	-302
▁평	-303
시간	-304
하는	-305
▁우려	-306
▁학폭	-307
손흥민	-308
▁건	-309
▁긴	-310
▁끝	-311
▁뒤	-312
▁듯	-313
▁막	-314
▁애	-315
▁열	-316
▁완	-317
▁프	-318
만에	-319
여정	-320
조사	-321
철수	-322
혐의	-323
▁SK	-324
▁vs	-325
▁뉴	-326
▁북	-327
▁왜	-328
▁표	-329
▁홍	-330
경기	-331
금지	-332
는데	-333
단독	-334
만명	-335
명대	-336
무부	-337
정부	-338
코인	-339
▁50	-340
▁LH	-341
▁가능	-342
▁감독	-343
▁상승	-344
▁세계	-345
▁국민의힘	-346
▁與	-347
▁말	-348
▁받	-349
▁복	-350
▁새	-351
▁음	-352
▁작	-353
▁처	-354
▁축	-355
▁타	-356
▁환	-357
리그	-358
병원	-359
했다	-360
▁13	-361
▁30	-362
▁미국	-363
▁발생	-364
▁방역	-365
▁연속	-366
▁지원	-367
▁취소	-368
▁확정	-369
오세훈	-370
▁날	-371
▁때	-372
▁압	-373
▁운	-374
▁공급	-375
▁영국	-376
▁올해	-377
▁최대	-378
▁추진	-379
▁탄핵	-380
▁폭로	-381
▁확보	-382
▁100	-383
▁추미애	-384
.5	-385
▁(	-386
▁野	-387
▁군	-388
▁바	-389
▁순	-390
▁알	-391
▁준	-392
▁치	-393
대로	-394
수홍	-395
시아	-396
이슈	-397
지원	-398
추행	-399
한다	-400
확진	-401
▁15	-402
▁대응	-403
▁발견	-404
▁위해	-405
▁전국	-406
▁확산	-407
트코인	-408
▁공수처	-409
▁서울시장	-410
▁尹	-411
▁日	-412
▁간	-413
▁같	-414
▁골	-415
▁규	-416
▁극	-417
▁눈	-418
▁두	-419
▁브	-420
▁테	-421
▁폐	-422
▁필	-423
나리	-424
보다	-425
선수	-426
세계	-427
슬라	-428
원순	-429
일화	-430
증시	-431
▁12	-432
▁법원	-433
▁선수	-434
▁승리	-435
▁조사	-436
▁중단	-437
▁투기	-438
▁혐의	-439
▁민주당	-440
21	-441
▁M	-442
▁北	-443
▁몰	-444
▁설	-445
▁절	-446
경찰	-447
레이	-448
오늘	-449
전자	-450
케인	-451
폭행	-452
▁개발	-453
▁광주	-454
▁기록	-455
▁김태	-456
▁삼성	-457
▁우승	-458
▁이어	-459
▁주장	-460
▁직원	-461
...1	-462
▁박영선	-463
▁법무부	-464
▁피해자	-465
NS	-466
▁英	-467
▁갈	-468
▁드	-469
▁백	-470
▁별	-471
▁악	-472
▁저	-473
▁쿠	-474
▁함	-475
▁황	-476
▁효	-477
감염	-478
서울	-479
스피	-480
시설	-481
았다	-482
인이	-483
접종	-484
정지	-485
파트	-486
학폭	-487
회의	-488
▁관련	-489
▁김종	-490
▁내일	-491
▁논의	-492
▁다시	-493
▁부산	-494
▁비판	-495
▁선거	-496
▁아냐	-497
▁아니	-498
▁의원	-499
▁전북	-500
▁정의	-501
▁지지	-502
▁투자	-503
▁폭행	-504
▁단일화	-505
',	-506
▁들	-507
▁잠	-508
▁찾	-509
▁카	-510
검찰	-511
경원	-512
라이	-513
번째	-514
에게	-515
정은	-516
책임	-517
▁공식	-518
▁넘어	-519
▁돌파	-520
▁사건	-521
▁승인	-522
▁여성	-523
▁연장	-524
▁전수	-525
▁비트코인	-526
▁N	-527
▁권	-528
▁근	-529
▁난	-530
▁목	-531
▁에	-532
▁채	-533
기업	-534
뉴스	-535
러스	-536
리는	-537
영상	-538
주택	-539
페이	-540
학생	-541
▁'1	-542
▁검토	-543
▁결정	-544
▁뉴욕	-545
▁대표	-546
▁모두	-547
▁발언	-548
▁사상	-549
▁사실	-550
▁수상	-551
▁숨진	-552
▁요구	-553
▁원전	-554
▁이유	-555
▁인정	-556
▁집단	-557
미나리	-558
...‘	-559
?...	-560
▁안철수	-561
▁신규확진	-562
30	-563
▁과	-564
▁베	-565
▁송	-566
▁야	-567
▁커	-568
▁키	-569
▁트	-570
▁패	-571
▁할	-572
▁혼	-573
기사	-574
대차	-575
데타	-576
두환	-577
라도	-578
법원	-579
선거	-580
수사	-581
시장	-582
창흠	-583
카오	-584
터리	-585
하게	-586
하나	-587
하라	-588
▁강화	-589
▁계약	-590
▁긴급	-591
▁북한	-592
▁소송	-593
▁신청	-594
▁아이	-595
▁장관	-596
▁지역	-597
▁최초	-598
▁프로	-599
▁하락	-600
▁하루	-601
▁협상	-602
▁확대	-603
지원금	-604
’...	-605
▁박수홍	-606
▁수도권	-607
▁아파트	-608
▁테슬라	-609
PL	-610
▁E	-611
▁G	-612
▁韓	-613
▁게	-614
▁될	-615
▁딸	-616
▁업	-617
▁줄	-618
▁체	-619
▁탈	-620
▁희	-621
계약	-622
대책	-623
두순	-624
소원	-625
억원	-626
우조	-627
이트	-628
터뷰	-629
폭력	-630
▁14	-631
▁결혼	-632
▁경기	-633
▁금지	-634
▁내년	-635
▁대구	-636
▁대상	-637
▁불법	-638
▁살해	-639
▁선발	-640
▁재개	-641
▁중국	-642
▁확인	-643
▁효과	-644
박영선	-645
▁성폭행	-646
▁윤여정	-647
▁이재명	-648
▁코스피	-649
"[	-650
3%	-651
▁0	-652
▁中	-653
▁靑	-654
▁늘	-655
▁면	-656
▁물	-657
▁빠	-658
▁육	-659
▁잡	-660
▁질	-661
▁침	-662
기로	-663
농단	-664
단체	-665
당국	-666
된다	-667
두고	-668
리아	-669
머니	-670
사실	-671
사이	-672
성용	-673
스타	-674
용구	-675
이자	-676
장관	-677
장에	-678
총장	-679
최고	-680
한국	-681
▁"'	-682
▁17	-683
▁40	-684
▁KB	-685
▁결국	-686
▁계속	-687
▁고소	-688
▁공격	-689
▁돌아	-690
▁선언	-691
▁시도	-692
▁있다	-693
▁있어	-694
▁총격	-695
▁총리	-696
▁축구	-697
▁해명	-698
공수처	-699
일부터	-700
▁나경원	-701
▁변창흠	-702
-1	-703
80	-704
▁C	-705
▁I	-706
▁`	-707
▁농	-708
▁맨	-709
▁머	-710
▁버	-711
▁착	-712
▁터	-713
▁퇴	-714
▁편	-715
▁플	-716
▁핵	-717
▁휴	-718
개혁	-719
경제	-720
달라	-721
달러	-722
대표	-723
더니	-724
동산	-725
득점	-726
리뉴	-727
방역	-728
범죄	-729
스카	-730
스터	-731
지역	-732
징계	-733
차별	-734
▁16	-735
▁19	-736
▁격상	-737
▁문제	-738
▁본격	-739
▁생각	-740
▁신고	-741
▁유지	-742
▁의사	-743
▁인상	-744
▁재난	-745
▁직무	-746
▁출마	-747
▁충격	-748
박원순	-749
▁김종인	-750
▁마스크	-751
▁성추행	-752
▁앞두고	-753
TV	-754
▁U	-755
▁걸	-756
▁높	-757
▁레	-758
▁로	-759
▁메	-760
▁밤	-761
▁번	-762
▁벗	-763
▁엄	-764
▁울	-765
▁죄	-766
▁택	-767
▁활	-768
▁힘	-769
가구	-770
도시	-771
도체	-772
림픽	-773
배구	-774
사자	-775
속사	-776
아이	-777
연상	-778
의원	-779
지는	-780
판사	-781
호골	-782
회장	-783
▁32	-784
▁갈등	-785
▁경제	-786
▁교수	-787
▁기술	-788
▁도입	-789
▁바이	-790
▁반발	-791
▁복귀	-792
▁사람	-793
▁사태	-794
▁사퇴	-795
▁세종	-796
▁시장	-797
▁언급	-798
▁영향	-799
▁인천	-800
▁접촉	-801
▁정치	-802
▁주가	-803
▁진행	-804
▁찾아	-805
▁특별	-806
▁학교	-807
▁회장	-808
▁400	-809
▁김정은	-810
▁전두환	-811
▁정의당	-812
▁현대차	-813
.4	-814
LH	-815
▁B	-816
▁F	-817
▁W	-818
▁각	-819
▁곳	-820
▁꺼	-821
▁데	-822
▁디	-823
▁따	-824
▁땅	-825
▁떠	-826
▁블	-827
▁빅	-828
▁석	-829
▁품	-830
가족	-831
공식	-832
관계	-833
국내	-834
날씨	-835
라인	-836
료제	-837
사고	-838
서도	-839
세대	-840
안부	-841
없는	-842
우리	-843
이닝	-844
정원	-845
정의	-846
졌다	-847
조선	-848
진영	-849
해자	-850
했나	-851
현장	-852
횡령	-853
100	-854
▁AI	-855
▁가족	-856
▁강원	-857
▁같은	-858
▁국내	-859
▁급등	-860
▁김진	-861
▁내정	-862
▁비난	-863
▁사찰	-864
▁살인	-865
▁선정	-866
▁소식	-867
▁수용	-868
▁시민	-869
▁아닌	-870
▁애플	-871
▁육박	-872
▁이번	-873
▁일본	-874
▁입장	-875
▁있는	-876
▁전망	-877
▁지속	-878
▁출신	-879
▁출전	-880
▁친형	-881
▁투표	-882
▁필요	-883
▁항소	-884
미스트	-885
수도권	-886
...3	-887
...4	-888
▁SNS	-889
▁김태현	-890
▁논란에	-891
▁쿠데타	-892
▁함소원	-893
미스트롯	-894
▁전수검사	-895
▁재난지원금	-896
.1	-897
10	-898
50	-899
SK	-900
▁P	-901
▁檢	-902
▁秋	-903
▁벤	-904
▁약	-905
▁억	-906
▁월	-907
▁응	-908
▁점	-909
▁철	-910
▁토	-911
▁향	-912
▁훈	-913
▁흔	-914
강인	-915
곡동	-916
공인	-917
국인	-918
근길	-919
년간	-920
누적	-921
더나	-922
됐다	-923
떻게	-924
랜드	-925
렸다	-926
류현	-927
리온	-928
린이	-929
모임	-930
사태	-931
상보	-932
신수	-933
실점	-934
아내	-935
올해	-936
이라	-937
정치	-938
직원	-939
진화	-940
투기	-941
하루	-942
호영	-943
환경	-944
"..	-945
▁'2	-946
▁25	-947
▁29	-948
▁80	-949
▁AZ	-950
▁결론	-951
▁경남	-952
▁경쟁	-953
▁교체	-954
▁구미	-955
▁국방	-956
▁기업	-957
▁남성	-958
▁다른	-959
▁달성	-960
▁대책	-961
▁마감	-962
▁무죄	-963
▁법적	-964
▁변이	-965
▁별세	-966
▁부인	-967
▁분노	-968
▁사용	-969
▁산업	-970
▁상황	-971
▁수준	-972
▁아들	-973
▁안전	-974
▁없는	-975
▁없이	-976
▁유승	-977
▁유튜	-978
▁의심	-979
▁정상	-980
▁제외	-981
▁조치	-982
▁증시	-983
▁진출	-984
▁집행	-985
▁책임	-986
▁최다	-987
▁최종	-988
▁판사	-989
▁행정	-990
▁허용	-991
▁협의	-992
▁화성	-993
▁화재	-994
정농단	-995
...5	-996
...”	-997
▁300	-998
▁500	-999
▁가능성	-1000
▁무리뉴	-1001
▁아시아	-1002
▁없었다	-1003
▁이재용	-1004
▁화이자	-1005
국민의힘	-1006
우조연상	-1007
▁문대통령	-1008
%↑	-1009
25	-1010
?"	-1011
LB	-1012
MK	-1013
▁귀	-1014
▁놓	-1015
▁담	-1016
▁독	-1017
▁되	-1018
▁벌	-1019
▁빼	-1020
▁싸	-1021
▁왕	-1022
▁용	-1023
▁잘	-1024
▁좋	-1025
가격	-1026
공항	-1027
교육	-1028
글로	-1029
기차	-1030
는다	-1031
다음	-1032
리스	-1033
마트	-1034
무원	-1035
문화	-1036
배우	-1037
보니	-1038
보선	-1039
사일	-1040
사찰	-1041
세요	-1042
센터	-1043
소송	-1044
시마	-1045
야구	-1046
업자	-1047
여명	-1048
운전	-1049
위원	-1050
유럽	-1051
의사	-1052
자리	-1053
재판	-1054
징역	-1055
징주	-1056
커스	-1057
폭풍	-1058
하다	-1059
학의	-1060
호사	-1061
환자	-1062
훼손	-1063
▁"1	-1064
▁'3	-1065
▁60	-1066
▁LG	-1067
▁NC	-1068
▁감찰	-1069
▁개인	-1070
▁경신	-1071
▁공공	-1072
▁군부	-1073
▁기대	-1074
▁기소	-1075
▁나올	-1076
▁득점	-1077
▁들어	-1078
▁리그	-1079
▁박지	-1080
▁반박	-1081
▁발사	-1082
▁배구	-1083
▁수도	-1084
▁시위	-1085
▁시즌	-1086
▁실패	-1087
▁여부	-1088
▁연봉	-1089
▁영업	-1090
▁예상	-1091
▁운영	-1092
▁위기	-1093
▁위반	-1094
▁의지	-1095
▁이틀	-1096
▁이혼	-1097
▁재판	-1098
▁전세	-1099
▁제작	-1100
▁제출	-1101
▁조국	-1102
▁조정	-1103
▁주목	-1104
▁주민	-1105
▁주택	-1106
▁지급	-1107
▁지난	-1108
▁집합	-1109
▁출연	-1110
▁케인	-1111
▁택시	-1112
▁통과	-1113
▁투입	-1114
▁판결	-1115
▁폭발	-1116
▁폭설	-1117
▁한파	-1118
류현진	-1119
범경기	-1120
안철수	-1121
천만원	-1122
특징주	-1123
▁...	-1124
▁200	-1125
▁공무원	-1126
▁배터리	-1127
▁본격화	-1128
▁아니다	-1129
▁어떻게	-1130
▁조두순	-1131
▁주호영	-1132
▁지지율	-1133
▁카카오	-1134
거리두기	-1135
▁1000	-1136
▁뉴욕증시	-1137
▁바이러스	-1138
18	-1139
HO	-1140
PO	-1141
TS	-1142
▁D	-1143
▁前	-1144
▁故	-1145
▁軍	-1146
▁길	-1147
▁네	-1148
▁떨	-1149
▁뛰	-1150
▁망	-1151
▁먹	-1152
▁밝	-1153
▁식	-1154
▁암	-1155
▁잔	-1156
▁존	-1157
▁천	-1158
▁촉	-1159
▁크	-1160
▁태	-1161
▁팬	-1162
▁풀	-1163
개발	-1164
거래	-1165
경심	-1166
공급	-1167
구치	-1168
금리	-1169
남기	-1170
니다	-1171
대호	-1172
라질	-1173
마사	-1174
사랑	-1175
생명	-1176
셀트	-1177
소리	-1178
수수	-1179
스와	-1180
시민	-1181
시위	-1182
시티	-1183
심서	-1184
악관	-1185
약품	-1186
언스	-1187
업계	-1188
영장	-1189
왔다	-1190
의혹	-1191
의회	-1192
이다	-1193
인의	-1194
적인	-1195
절차	-1196
제네	-1197
주시	-1198
주의	-1199
중립	-1200
증권	-1201
지막	-1202
지수	-1203
차례	-1204
치기	-1205
학교	-1206
한미	-1207
할까	-1208
했던	-1209
헌법	-1210
혁신	-1211
▁21	-1212
▁22	-1213
▁38	-1214
▁거리	-1215
▁결과	-1216
▁경고	-1217
▁곳곳	-1218
▁공동	-1219
▁국제	-1220
▁국회	-1221
▁극단	-1222
▁기부	-1223
▁내부	-1224
▁누구	-1225
▁대선	-1226
▁도전	-1227
▁도쿄	-1228
▁등장	-1229
▁만든	-1230
▁모녀	-1231
▁민주	-1232
▁반응	-1233
▁방치	-1234
▁배우	-1235
▁부상	-1236
▁비상	-1237
▁사업	-1238
▁상대	-1239
▁선두	-1240
▁성장	-1241
▁시대	-1242
▁실종	-1243
▁안돼	-1244
▁안보	-1245
▁앞둔	-1246
▁양현	-1247
▁언제	-1248
▁여론	-1249
▁역대	-1250
▁역사	-1251
▁역전	-1252
▁연기	-1253
▁오후	-1254
▁완화	-1255
▁유출	-1256
▁음주	-1257
▁이란	-1258
▁이슈	-1259
▁이후	-1260
▁자택	-1261
▁적발	-1262
▁제기	-1263
▁종료	-1264
▁죄송	-1265
▁중요	-1266
▁최소	-1267
▁추락	-1268
▁출격	-1269
▁판단	-1270
▁평점	-1271
▁폭락	-1272
▁폭탄	-1273
▁피소	-1274
▁한일	-1275
▁항공	-1276
▁해외	-1277
▁현직	-1278
▁훈련	-1279
구치소	-1280
김학의	-1281
년만에	-1282
린이집	-1283
미얀마	-1284
바이오	-1285
반도체	-1286
상공인	-1287
오늘의	-1288
올림픽	-1289
이낙연	-1290
추미애	-1291
치료제	-1292
쿠시마	-1293
페이지	-1294
했지만	-1295
2020	-1296
▁10%	-1297
▁600	-1298
▁류현진	-1299
▁머스크	-1300
▁모더나	-1301
▁박원순	-1302
▁사망자	-1303
▁소식에	-1304
▁스마트	-1305
▁신세계	-1306
▁인터뷰	-1307
▁징계위	-1308
삼성전자	-1309
셀트리온	-1310
"...'	-1311
'..."	-1312
▁시범경기	-1313
▁집합금지	-1314
▁택시기사	-1315
▁여우조연상	-1316
-2	-1317
BS	-1318
DA	-1319
ON	-1320
TF	-1321
▁·	-1322
▁겨	-1323
▁밀	-1324
▁범	-1325
▁슈	-1326
▁좌	-1327
▁죽	-1328
▁형	-1329
▁홈	-1330
갑질	-1331
걱정	-1332
경화	-1333
공개	-1334
공비	-1335
공원	-1336
근혜	-1337
나운	-1338
내일	-1339
냈다	-1340
더기	-1341
도로	-1342
되나	-1343
들어	-1344
라임	-1345
랐다	-1346
래방	-1347
랫폼	-1348
리버	-1349
명수	-1350
모녀	-1351
미국	-1352
민정	-1353
변이	-1354
분기	-1355
불법	-1356
사건	-1357
사용	-1358
사퇴	-1359
사회	-1360
상고	-1361
상호	-1362
스포	-1363
시스	-1364
어져	-1365
여자	-1366
역대	-1367
연승	-1368
와대	-1369
은정	-1370
을까	-1371
이나	-1372
이번	-1373
이재	-1374
이터	-1375
인다	-1376
인단	-1377
인은	-1378
재산	-1379
정권	-1380
정보	-1381
중권	-1382
지검	-1383
지나	-1384
쳤다	-1385
총리	-1386
최소	-1387
타임	-1388
투어	-1389
투자	-1390
투호	-1391
프로	-1392
하면	-1393
하자	-1394
하지	-1395
형준	-1396
활비	-1397
휘재	-1398
▁24	-1399
▁26	-1400
▁27	-1401
▁간부	-1402
▁강조	-1403
▁강풍	-1404
▁개편	-1405
▁거래	-1406
▁게임	-1407
▁계획	-1408
▁구축	-1409
▁국채	-1410
▁규모	-1411
▁금리	-1412
▁기준	-1413
▁긴장	-1414
▁김보	-1415
▁나온	-1416
▁날씨	-1417
▁남아	-1418
▁남편	-1419
▁논문	-1420
▁누적	-1421
▁눈물	-1422
▁달라	-1423
▁대검	-1424
▁동반	-1425
▁될까	-1426
▁뒤집	-1427
▁때문	-1428
▁명예	-1429
▁문건	-1430
▁반려	-1431
▁반성	-1432
▁발령	-1433
▁발의	-1434
▁베일	-1435
▁부담	-1436
▁부장	-1437
▁부정	-1438
▁빠진	-1439
▁사유	-1440
▁사의	-1441
▁사이	-1442
▁석방	-1443
▁선박	-1444
▁선택	-1445
▁손해	-1446
▁스타	-1447
▁식당	-1448
▁아내	-1449
▁압박	-1450
▁애틀	-1451
▁야구	-1452
▁어려	-1453
▁언론	-1454
▁에이	-1455
▁여행	-1456
▁열애	-1457
▁영입	-1458
▁영화	-1459
▁예방	-1460
▁우리	-1461
▁울산	-1462
▁위한	-1463
▁유행	-1464
▁유흥	-1465
▁응원	-1466
▁이동	-1467
▁이승	-1468
▁이익	-1469
▁이하	-1470
▁인수	-1471
▁인증	-1472
▁임성	-1473
▁정보	-1474
▁정책	-1475
▁제주	-1476
▁제한	-1477
▁주말	-1478
▁준비	-1479
▁중심	-1480
▁증가	-1481
▁지도	-1482
▁지시	-1483
▁직접	-1484
▁진화	-1485
▁참여	-1486
▁초유	-1487
▁총장	-1488
▁통제	-1489
▁학생	-1490
▁한다	-1491
▁한미	-1492
▁핵심	-1493
▁현실	-1494
▁호소	-1495
▁화장	-1496
▁횡령	-1497
기성용	-1498
나운서	-1499
년까지	-1500
단계로	-1501
마스크	-1502
만명분	-1503
신공항	-1504
월부터	-1505
위안부	-1506
의약품	-1507
이용구	-1508
인터뷰	-1509
전문가	-1510
정인이	-1511
카카오	-1512
포커스	-1513
하겠다	-1514
했는데	-1515
···"	-1516
▁2.5	-1517
▁EPL	-1518
▁SKT	-1519
▁WHO	-1520
▁경기도	-1521
▁국방부	-1522
▁기성용	-1523
▁무더기	-1524
▁백악관	-1525
▁벤투호	-1526
▁부동산	-1527
▁양현종	-1528
▁영국발	-1529
▁오스카	-1530
▁외국인	-1531
▁유승민	-1532
▁이대호	-1533
▁이용구	-1534
▁이휘재	-1535
▁있었다	-1536
▁재계약	-1537
▁재보선	-1538
▁정인이	-1539
▁폭로자	-1540
▁홍남기	-1541
문대통령	-1542
부구치소	-1543
사이언스	-1544
?..."	-1545
▁구속영장	-1546
▁삼성전자	-1547
▁아나운서	-1548
▁여론조사	-1549
▁음주운전	-1550
▁집단감염	-1551
바이오사이언스	-1552
.6	-1553
.8	-1554
11	-1555
60	-1556
BC	-1557
FA	-1558
GA	-1559
LG	-1560
SS	-1561
km	-1562
▁O	-1563
▁外	-1564
▁견	-1565
▁꺾	-1566
▁꿈	-1567
▁낮	-1568
▁느	-1569
▁둘	-1570
▁뚫	-1571
▁라	-1572
▁러	-1573
▁많	-1574
▁맛	-1575
▁먼	-1576
▁봉	-1577
▁봐	-1578
▁쇼	-1579
▁술	-1580
▁싶	-1581
▁쓰	-1582
▁엘	-1583
▁옥	-1584
▁온	-1585
▁와	-1586
▁익	-1587
▁잃	-1588
▁잇	-1589
▁찍	-1590
▁찬	-1591
▁캠	-1592
▁콜	-1593
▁큰	-1594
▁팔	-1595
▁흥	-1596
갤럭	-1597
거리	-1598
공단	-1599
공화	-1600
광주	-1601
교회	-1602
국가	-1603
국회	-1604
그램	-1605
기에	-1606
난다	-1607
내가	-1608
너무	-1609
대구	-1610
대사	-1611
대선	-1612
데미	-1613
도움	-1614
라가	-1615
랑스	-1616
랜타	-1617
린다	-1618
매도	-1619
먼지	-1620
면허	-1621
목표	-1622
문제	-1623
베이	-1624
변화	-1625
병규	-1626
병상	-1627
병우	-1628
부부	-1629
부산	-1630
사기	-1631
사면	-1632
사법	-1633
사상	-1634
사업	-1635
살인	-1636
세에	-1637
소년	-1638
수본	-1639
수진	-1640
승부	-1641
시가	-1642
에이	-1643
연경	-1644
였다	-1645
예지	-1646
요일	-1647
운동	-1648
으면	-1649
이면	-1650
이어	-1651
인더	-1652
인력	-1653
인순	-1654
인증	-1655
인트	-1656
입장	-1657
자금	-1658
점검	-1659
정성	-1660
제주	-1661
제한	-1662
중국	-1663
집단	-1664
차관	-1665
차전	-1666
처분	-1667
천만	-1668
체크	-1669
태탕	-1670
투표	-1671
한파	-1672
합의	-1673
행위	-1674
행정	-1675
헬스	-1676
▁-1	-1677
▁18	-1678
▁70	-1679
▁74	-1680
▁83	-1681
▁NO	-1682
▁가격	-1683
▁감사	-1684
▁강력	-1685
▁같아	-1686
▁개각	-1687
▁개선	-1688
▁걱정	-1689
▁건설	-1690
▁고위	-1691
▁공방	-1692
▁공포	-1693
▁관계	-1694
▁구단	-1695
▁구조	-1696
▁구형	-1697
▁규제	-1698
▁급증	-1699
▁꺼낸	-1700
▁남자	-1701
▁높은	-1702
▁누리	-1703
▁늘어	-1704
▁대비	-1705
▁대신	-1706
▁대전	-1707
▁대화	-1708
▁돌입	-1709
▁뛰어	-1710
▁라이	-1711
▁막말	-1712
▁매체	-1713
▁맨유	-1714
▁메시	-1715
▁모임	-1716
▁반전	-1717
▁받은	-1718
▁밝혀	-1719
▁보고	-1720
▁부양	-1721
▁불가	-1722
▁불참	-1723
▁빼고	-1724
▁살아	-1725
▁상태	-1726
▁선제	-1727
▁속도	-1728
▁수입	-1729
▁수출	-1730
▁스토	-1731
▁시행	-1732
▁심각	-1733
▁아동	-1734
▁압류	-1735
▁어제	-1736
▁업무	-1737
▁여아	-1738
▁여전	-1739
▁여친	-1740
▁영상	-1741
▁예정	-1742
▁오염	-1743
▁요청	-1744
▁우주	-1745
▁위험	-1746
▁위협	-1747
▁의미	-1748
▁의식	-1749
▁이용	-1750
▁이제	-1751
▁이해	-1752
▁인도	-1753
▁일정	-1754
▁임대	-1755
▁작품	-1756
▁저격	-1757
▁전파	-1758
▁절반	-1759
▁절차	-1760
▁제네	-1761
▁제안	-1762
▁조기	-1763
▁조작	-1764
▁조지	-1765
▁주인	-1766
▁주저	-1767
▁중대	-1768
▁증언	-1769
▁지켜	-1770
▁집중	-1771
▁차관	-1772
▁차질	-1773
▁처음	-1774
▁체포	-1775
▁총력	-1776
▁최강	-1777
▁추모	-1778
▁축소	-1779
▁충북	-1780
▁침묵	-1781
▁쿠팡	-1782
▁키움	-1783
▁판정	-1784
▁포함	-1785
▁폭력	-1786
▁학원	-1787
▁한화	-1788
▁항체	-1789
▁했다	-1790
▁허위	-1791
▁협력	-1792
▁혼조	-1793
▁회의	-1794
▁흔들	-1795
갤럭시	-1796
구마사	-1797
라제네	-1798
레이드	-1799
박수홍	-1800
부동산	-1801
성추행	-1802
세먼지	-1803
소속사	-1804
수수색	-1805
아내의	-1806
에서도	-1807
이강인	-1808
조두순	-1809
차세대	-1810
카데미	-1811
▁1.5	-1812
▁MLB	-1813
▁가해자	-1814
▁고진영	-1815
▁극단적	-1816
▁김여정	-1817
▁김연경	-1818
▁김진애	-1819
▁내곡동	-1820
▁돌아오	-1821
▁맨시티	-1822
▁무승부	-1823
▁미사일	-1824
▁박지성	-1825
▁보인다	-1826
▁소속사	-1827
▁아니라	-1828
▁않겠다	-1829
▁우상호	-1830
▁유튜브	-1831
▁재상고	-1832
▁정경심	-1833
▁조수진	-1834
▁진중권	-1835
▁추신수	-1836
▁페이지	-1837
▁필리버	-1838
▁항소심	-1839
▁황하나	-1840
▁후폭풍	-1841
검찰개혁	-1842
국정농단	-1843
라제네카	-1844
의약품청	-1845
인더머니	-1846
▁2021	-1847
▁공수처장	-1848
▁압수수색	-1849
▁애틀랜타	-1850
▁어린이집	-1851
▁오늘부터	-1852
▁제네시스	-1853
▁직무정지	-1854
▁프로야구	-1855
조선구마사	-1856
▁필리버스터	-1857
▁항체치료제	-1858
스트라제네카	-1859
%↓	-1860
15	-1861
2'	-1862
40	-1863
48	-1864
5%	-1865
AZ	-1866
ST	-1867
YT	-1868
]"	-1869
in	-1870
kg	-1871
~7	-1872
·4	-1873
·7	-1874
”(	-1875
▁겸	-1876
▁곽	-1877
▁깊	-1878
▁낙	-1879
▁돈	-1880
▁된	-1881
▁루	-1882
▁멈	-1883
▁뭐	-1884
▁볼	-1885
▁빌	-1886
▁빨	-1887
▁뿐	-1888
▁삭	-1889
▁얼	-1890
▁쟁	-1891
▁챙	-1892
▁첼	-1893
▁칼	-1894
▁휘	-1895
▁흉	-1896
가지	-1897
강원	-1898
건부	-1899
건설	-1900
건축	-1901
검장	-1902
공격	-1903
공정	-1904
광현	-1905
국자	-1906
기관	-1907
기는	-1908
기한	-1909
긴급	-1910
김종	-1911
남아	-1912
내기	-1913
다면	-1914
다운	-1915
대상	-1916
도소	-1917
도전	-1918
도쿄	-1919
독립	-1920
동물	-1921
동자	-1922
동훈	-1923
돼야	-1924
들에	-1925
디오	-1926
라엘	-1927
라진	-1928
려고	-1929
려는	-1930
료진	-1931
르면	-1932
리고	-1933
리에	-1934
만호	-1935
매체	-1936
멜라	-1937
반응	-1938
범계	-1939
법감	-1940
베일	-1941
병식	-1942
부세	-1943
부정	-1944
비원	-1945
사망	-1946
사진	-1947
산업	-1948
상금	-1949
상도	-1950
상황	-1951
새벽	-1952
수도	-1953
스톱	-1954
승리	-1955
시즌	-1956
실장	-1957
애플	-1958
양서	-1959
양시	-1960
양이	-1961
없다	-1962
없이	-1963
에즈	-1964
여야	-1965
연패	-1966
영국	-1967
영민	-1968
영화	-1969
우승	-1970
우영	-1971
유행	-1972
음성	-1973
음주	-1974
의에	-1975
의자	-1976
이너	-1977
인가	-1978
인들	-1979
인플	-1980
임대	-1981
자인	-1982
작용	-1983
정현	-1984
조국	-1985
조명	-1986
조치	-1987
종석	-1988
주기	-1989
주민	-1990
주행	-1991
줬다	-1992
지도	-1993
지법	-1994
진실	-1995
집행	-1996
처럼	-1997
청원	-1998
체육	-1999
측근	-2000
치고	-2001
치는	-2002
탄핵	-2003
태섭	-2004
통합	-2005
판결	-2006
피해	-2007
하성	-2008
하이	-2009
합상	-2010
항공	-2011
향후	-2012
현수	-2013
화설	-2014
확산	-2015
회사	-2016
후궁	-2017
희롱	-2018
.."	-2019
.1%	-2020
19'	-2021
500	-2022
EPL	-2023
PGA	-2024
SNS	-2025
▁"3	-2026
▁"4	-2027
▁'5	-2028
▁28	-2029
▁55	-2030
▁EU	-2031
▁GV	-2032
▁KS	-2033
▁“‘	-2034
▁가수	-2035
▁감소	-2036
▁갑질	-2037
▁강타	-2038
▁강행	-2039
▁거부	-2040
▁건물	-2041
▁경북	-2042
▁고백	-2043
▁고조	-2044
▁공장	-2045
▁과정	-2046
▁광고	-2047
▁교사	-2048
▁교통	-2049
▁권고	-2050
▁급락	-2051
▁기각	-2052
▁기다	-2053
▁김해	-2054
▁나선	-2055
▁나오	-2056
▁난입	-2057
▁남은	-2058
▁내달	-2059
▁내주	-2060
▁노력	-2061
▁다저	-2062
▁당선	-2063
▁대결	-2064
▁대회	-2065
▁데뷔	-2066
▁두산	-2067
▁마음	-2068
▁막은	-2069
▁만나	-2070
▁매각	-2071
▁매우	-2072
▁매입	-2073
▁먼저	-2074
▁못해	-2075
▁무료	-2076
▁미안	-2077
▁밤새	-2078
▁방문	-2079
▁번째	-2080
▁법무	-2081
▁법정	-2082
▁벗어	-2083
▁변종	-2084
▁부각	-2085
▁부당	-2086
▁부모	-2087
▁분석	-2088
▁불발	-2089
▁불안	-2090
▁블랙	-2091
▁사고	-2092
▁사례	-2093
▁사면	-2094
▁사우	-2095
▁사전	-2096
▁사회	-2097
▁산불	-2098
▁상금	-2099
▁상원	-2100
▁선물	-2101
▁성탄	-2102
▁세상	-2103
▁소통	-2104
▁쇼트	-2105
▁수비	-2106
▁수술	-2107
▁수원	-2108
▁순천	-2109
▁시험	-2110
▁신뢰	-2111
▁실시	-2112
▁심판	-2113
▁아빠	-2114
▁아직	-2115
▁않는	-2116
▁알고	-2117
▁양보	-2118
▁억울	-2119
▁언어	-2120
▁업종	-2121
▁연구	-2122
▁연상	-2123
▁연휴	-2124
▁예고	-2125
▁예비	-2126
▁올라	-2127
▁왜곡	-2128
▁외교	-2129
▁요양	-2130
▁위법	-2131
▁유럽	-2132
▁유죄	-2133
▁의견	-2134
▁이스	-2135
▁이전	-2136
▁이지	-2137
▁일단	-2138
▁일부	-2139
▁임명	-2140
▁작가	-2141
▁잠정	-2142
▁적극	-2143
▁전남	-2144
▁조직	-2145
▁주도	-2146
▁증거	-2147
▁지수	-2148
▁지적	-2149
▁진짜	-2150
▁차단	-2151
▁채용	-2152
▁청구	-2153
▁청년	-2154
▁청약	-2155
▁초청	-2156
▁촉구	-2157
▁최저	-2158
▁최후	-2159
▁추위	-2160
▁추천	-2161
▁출발	-2162
▁출범	-2163
▁출소	-2164
▁취업	-2165
▁취임	-2166
▁친모	-2167
▁터뜨	-2168
▁토론	-2169
▁통보	-2170
▁통산	-2171
▁통화	-2172
▁투병	-2173
▁폐기	-2174
▁폐업	-2175
▁포르	-2176
▁폭등	-2177
▁표명	-2178
▁학대	-2179
▁한은	-2180
▁함께	-2181
▁합류	-2182
▁해킹	-2183
▁혁신	-2184
▁현장	-2185
▁협박	-2186
▁화제	-2187
▁활용	-2188
▁황희	-2189
▁휴식	-2190
▁희망	-2191
▁희생	-2192
가격리	-2193
교육청	-2194
글로벌	-2195
김종인	-2196
라도나	-2197
만가구	-2198
범죄자	-2199
스포츠	-2200
시까지	-2201
아시아	-2202
아이들	-2203
이다영	-2204
인증서	-2205
일까지	-2206
재판부	-2207
청와대	-2208
출근길	-2209
쿠데타	-2210
"···	-2211
%...	-2212
...2	-2213
...6	-2214
▁20%	-2215
▁50%	-2216
▁FDA	-2217
▁KBO	-2218
▁가처분	-2219
▁강경화	-2220
▁광주시	-2221
▁금태섭	-2222
▁김광현	-2223
▁김명수	-2224
▁김태년	-2225
▁디자인	-2226
▁떨어져	-2227
▁마지막	-2228
▁몰랐다	-2229
▁문정원	-2230
▁박범계	-2231
▁변호사	-2232
▁브라질	-2233
▁사실상	-2234
▁사유리	-2235
▁상승세	-2236
▁서예지	-2237
▁성희롱	-2238
▁세종시	-2239
▁오염수	-2240
▁우병우	-2241
▁의원들	-2242
▁이번엔	-2243
▁이번주	-2244
▁이유는	-2245
▁이재영	-2246
▁임성근	-2247
▁재건축	-2248
▁전기차	-2249
▁종사자	-2250
▁지난해	-2251
▁지도부	-2252
▁최강욱	-2253
▁탄핵안	-2254
▁평검사	-2255
▁플랫폼	-2256
▁한국인	-2257
▁한일전	-2258
법감시위	-2259
서울시장	-2260
..."2	-2261
...20	-2262
▁국채금리	-2263
▁방역당국	-2264
▁선거인단	-2265
▁소상공인	-2266
▁유흥시설	-2267
▁이스라엘	-2268
▁학교폭력	-2269
▁후쿠시마	-2270
!'	-2271
'(	-2272
'[	-2273
)[	-2274
-0	-2275
.0	-2276
.7	-2277
12	-2278
2’	-2279
6%	-2280
62	-2281
87	-2282
9%	-2283
EC	-2284
EU	-2285
IA	-2286
MB	-2287
SB	-2288
SG	-2289
TO	-2290
YG	-2291
cm	-2292
·3	-2293
’,	-2294
’”	-2295
′′	-2296
▁/	-2297
▁吳	-2298
▁女	-2299
▁無	-2300
▁車	-2301
▁곤	-2302
▁곧	-2303
▁굴	-2304
▁글	-2305
▁까	-2306
▁깎	-2307
▁꼬	-2308
▁끊	-2309
▁끼	-2310
▁녹	-2311
▁뇌	-2312
▁늦	-2313
▁니	-2314
▁답	-2315
▁뛴	-2316
▁롯	-2317
▁맥	-2318
▁맹	-2319
▁몫	-2320
▁몸	-2321
▁묘	-2322
▁민	-2323
▁믿	-2324
▁밖	-2325
▁봄	-2326
▁빙	-2327
▁삼	-2328
▁샤	-2329
▁셰	-2330
▁숙	-2331
▁쏟	-2332
▁엔	-2333
▁염	-2334
▁족	-2335
▁즉	-2336
▁챔	-2337
▁층	-2338
▁캐	-2339
▁클	-2340
▁킹	-2341
▁팀	-2342
▁펠	-2343
▁했	-2344
▁홀	-2345
가정	-2346
감찰	-2347
갑근	-2348
강사	-2349
개미	-2350
걸음	-2351
게인	-2352
결과	-2353
결혼	-2354
경북	-2355
고용	-2356
골프	-2357
공동	-2358
공방	-2359
공연	-2360
과학	-2361
관왕	-2362
구미	-2363
그룹	-2364
기도	-2365
기록	-2366
기소	-2367
기지	-2368
김동	-2369
나스	-2370
노예	-2371
노원	-2372
논란	-2373
뉴욕	-2374
니아	-2375
다우	-2376
단서	-2377
달래	-2378
당원	-2379
대전	-2380
덕도	-2381
동차	-2382
되는	-2383
두산	-2384
들께	-2385
들도	-2386
들은	-2387
디어	-2388
따라	-2389
라미	-2390
렇게	-2391
로자	-2392
루다	-2393
르기	-2394
리나	-2395
리조	-2396
링컨	-2397
마감	-2398
마리	-2399
멕시	-2400
면역	-2401
명서	-2402
명은	-2403
모든	-2404
무근	-2405
무리	-2406
문체	-2407
민석	-2408
민아	-2409
받아	-2410
발적	-2411
배상	-2412
배소	-2413
버스	-2414
버풀	-2415
범수	-2416
법적	-2417
법정	-2418
벤트	-2419
별설	-2420
보건	-2421
보도	-2422
보드	-2423
보호	-2424
부상	-2425
분석	-2426
비상	-2427
비서	-2428
사례	-2429
사방	-2430
사설	-2431
사스	-2432
석희	-2433
선영	-2434
선택	-2435
성범	-2436
세균	-2437
세로	-2438
셀프	-2439
소식	-2440
손보	-2441
손자	-2442
수석	-2443
스날	-2444
스플	-2445
시다	-2446
시연	-2447
시청	-2448
시키	-2449
시트	-2450
신규	-2451
신청	-2452
아가	-2453
아주	-2454
아진	-2455
양군	-2456
어요	-2457
어준	-2458
없어	-2459
에선	-2460
에어	-2461
여론	-2462
연금	-2463
연말	-2464
영업	-2465
예방	-2466
용차	-2467
웅전	-2468
월호	-2469
위해	-2470
유예	-2471
유흥	-2472
윤리	-2473
은아	-2474
은우	-2475
은퇴	-2476
의성	-2477
의적	-2478
의조	-2479
이냐	-2480
이란	-2481
이사	-2482
이상	-2483
이익	-2484
이지	-2485
이틀	-2486
인데	-2487
인사	-2488
인천	-2489
일본	-2490
일상	-2491
임신	-2492
자가	-2493
자로	-2494
자산	-2495
자의	-2496
작년	-2497
장사	-2498
장서	-2499
재형	-2500
적절	-2501
전국	-2502
전남	-2503
전략	-2504
전지	-2505
접촉	-2506
정직	-2507
제는	-2508
조리	-2509
조원	-2510
조준	-2511
주인	-2512
주일	-2513
주자	-2514
주환	-2515
중기	-2516
증거	-2517
지고	-2518
지사	-2519
지털	-2520
진웅	-2521
차량	-2522
창일	-2523
천명	-2524
철도	-2525
청구	-2526
청장	-2527
촬영	-2528
최대	-2529
출한	-2530
충격	-2531
치히	-2532
카페	-2533
클럽	-2534
탱크	-2535
투갈	-2536
트랙	-2537
특보	-2538
티파	-2539
팀목	-2540
파일	-2541
판에	-2542
평가	-2543
프라	-2544
하니	-2545
하며	-2546
학대	-2547
한일	-2548
해결	-2549
해도	-2550
해체	-2551
햄튼	-2552
현재	-2553
혈전	-2554
혐오	-2555
협회	-2556
호남	-2557
호텔	-2558
혼모	-2559
화로	-2560
화문	-2561
활동	-2562
효준	-2563
후보	-2564
휴가	-2565
흘째	-2566
희수	-2567
.3%	-2568
300	-2569
POP	-2570
YTN	-2571
▁1,	-2572
▁31	-2573
▁42	-2574
▁62	-2575
▁90	-2576
▁FA	-2577
▁IT	-2578
▁[2	-2579
▁‘3	-2580
▁가장	-2581
▁각하	-2582
▁간다	-2583
▁강제	-2584
▁개막	-2585
▁개최	-2586
▁개혁	-2587
▁거짓	-2588
▁걸린	-2589
▁겨울	-2590
▁격돌	-2591
▁격리	-2592
▁견인	-2593
▁결승	-2594
▁경의	-2595
▁계좌	-2596
▁골든	-2597
▁공사	-2598
▁관리	-2599
▁관심	-2600
▁교육	-2601
▁교회	-2602
▁구급	-2603
▁구상	-2604
▁국토	-2605
▁군정	-2606
▁규탄	-2607
▁극복	-2608
▁극적	-2609
▁기사	-2610
▁기자	-2611
▁김현	-2612
▁김혜	-2613
▁나와	-2614
▁놓고	-2615
▁뉴스	-2616
▁단계	-2617
▁대거	-2618
▁대낮	-2619
▁대설	-2620
▁대한	-2621
▁대형	-2622
▁도로	-2623
▁도와	-2624
▁동맹	-2625
▁동참	-2626
▁됐다	-2627
▁드러	-2628
▁따라	-2629
▁뛴다	-2630
▁레알	-2631
▁롯데	-2632
▁만들	-2633
▁만의	-2634
▁망언	-2635
▁명분	-2636
▁모델	-2637
▁모든	-2638
▁모습	-2639
▁목숨	-2640
▁무력	-2641
▁무엇	-2642
▁무역	-2643
▁반대	-2644
▁받아	-2645
▁방송	-2646
▁방안	-2647
▁방출	-2648
▁방탄	-2649
▁보니	-2650
▁보선	-2651
▁보호	-2652
▁복지	-2653
▁분쟁	-2654
▁불러	-2655
▁불편	-2656
▁비서	-2657
▁사장	-2658
▁사진	-2659
▁사표	-2660
▁상처	-2661
▁상향	-2662
▁생존	-2663
▁서초	-2664
▁선처	-2665
▁선포	-2666
▁성공	-2667
▁성과	-2668
▁소리	-2669
▁소집	-2670
▁수급	-2671
▁수색	-2672
▁수순	-2673
▁수진	-2674
▁순차	-2675
▁순항	-2676
▁스트	-2677
▁시간	-2678
▁시총	-2679
▁신기	-2680
▁실망	-2681
▁실형	-2682
▁심문	-2683
▁싸우	-2684
▁아기	-2685
▁아침	-2686
▁않아	-2687
▁앞서	-2688
▁어디	-2689
▁엄마	-2690
▁에릭	-2691
▁여왕	-2692
▁연관	-2693
▁연다	-2694
▁연쇄	-2695
▁연습	-2696
▁영장	-2697
▁영하	-2698
▁예산	-2699
▁오리	-2700
▁완벽	-2701
▁완전	-2702
▁운명	-2703
▁원인	-2704
▁원정	-2705
▁위로	-2706
▁위장	-2707
▁유노	-2708
▁유력	-2709
▁음성	-2710
▁의협	-2711
▁의회	-2712
▁이름	-2713
▁이적	-2714
▁이탈	-2715
▁익산	-2716
▁인구	-2717
▁인사	-2718
▁일반	-2719
▁일상	-2720
▁임박	-2721
▁임신	-2722
▁입건	-2723
▁입단	-2724
▁자신	-2725
▁자율	-2726
▁자제	-2727
▁자체	-2728
▁쟁점	-2729
▁전략	-2730
▁전면	-2731
▁전원	-2732
▁전한	-2733
▁전해	-2734
▁정말	-2735
▁제명	-2736
▁제보	-2737
▁조성	-2738
▁좌초	-2739
▁주거	-2740
▁주역	-2741
▁중부	-2742
▁중소	-2743
▁중형	-2744
▁지금	-2745
▁지명	-2746
▁지연	-2747
▁지정	-2748
▁직후	-2749
▁진실	-2750
▁진정	-2751
▁질주	-2752
▁차량	-2753
▁처분	-2754
▁천안	-2755
▁철회	-2756
▁최선	-2757
▁출산	-2758
▁충분	-2759
▁취약	-2760
▁층간	-2761
▁치명	-2762
▁카드	-2763
▁콜로	-2764
▁타고	-2765
▁퇴장	-2766
▁특검	-2767
▁파악	-2768
▁파장	-2769
▁파주	-2770
▁패소	-2771
▁폐쇄	-2772
▁폭주	-2773
▁표결	-2774
▁표창	-2775
▁프리	-2776
▁하다	-2777
▁하자	-2778
▁합격	-2779
▁합병	-2780
▁해결	-2781
▁행동	-2782
▁행보	-2783
▁허가	-2784
▁헌법	-2785
▁호텔	-2786
▁혼란	-2787
▁홈런	-2788
▁환율	-2789
▁회동	-2790
▁회복	-2791
▁후속	-2792
▁훼손	-2793
▁흉기	-2794
국생명	-2795
금지법	-2796
김동완	-2797
김정은	-2798
나스닥	-2799
나이트	-2800
내곡동	-2801
노동자	-2802
노래방	-2803
대병원	-2804
대표팀	-2805
데이터	-2806
라멜라	-2807
렌시아	-2808
멕시코	-2809
박형준	-2810
배우조	-2811
배터리	-2812
법무부	-2813
법원장	-2814
병원성	-2815
비디오	-2816
살인죄	-2817
소년단	-2818
소중립	-2819
어게인	-2820
었는데	-2821
운동가	-2822
월까지	-2823
의사당	-2824
이었다	-2825
이재용	-2826
일만에	-2827
전두환	-2828
정의당	-2829
종차별	-2830
증명서	-2831
추신수	-2832
테슬라	-2833
텍사스	-2834
티파이	-2835
판공비	-2836
페이크	-2837
포인트	-2838
헬스장	-2839
후변화	-2840
▁30%	-2841
▁4·7	-2842
▁700	-2843
▁BTS	-2844
▁KBS	-2845
▁SBS	-2846
▁SSG	-2847
▁감염병	-2848
▁강창일	-2849
▁갤럭시	-2850
▁경찰관	-2851
▁고검장	-2852
▁광주서	-2853
▁그대로	-2854
▁기술주	-2855
▁김보름	-2856
▁김종철	-2857
▁김진욱	-2858
▁김하성	-2859
▁나올까	-2860
▁내장사	-2861
▁넘었다	-2862
▁노선영	-2863
▁누리꾼	-2864
▁대웅전	-2865
▁대유행	-2866
▁돌아온	-2867
▁리버풀	-2868
▁마무리	-2869
▁무실점	-2870
▁무차별	-2871
▁미국에	-2872
▁박근혜	-2873
▁박시연	-2874
▁반도체	-2875
▁배구계	-2876
▁변희수	-2877
▁사과문	-2878
▁사라진	-2879
▁상대로	-2880
▁세모녀	-2881
▁숨진채	-2882
▁스토킹	-2883
▁신현수	-2884
▁실시간	-2885
▁심은우	-2886
▁아이언	-2887
▁안보리	-2888
▁열애설	-2889
▁오늘도	-2890
▁올림픽	-2891
▁우주선	-2892
▁유튜버	-2893
▁윤갑근	-2894
▁의료진	-2895
▁의혹에	-2896
▁이강인	-2897
▁이벤트	-2898
▁인천서	-2899
▁일자리	-2900
▁일주일	-2901
▁임은정	-2902
▁임종석	-2903
▁임효준	-2904
▁입국자	-2905
▁자동차	-2906
▁재도전	-2907
▁재조명	-2908
▁정부와	-2909
▁정세균	-2910
▁정의용	-2911
▁정조준	-2912
▁조병규	-2913
▁조지아	-2914
▁종부세	-2915
▁주인공	-2916
▁중학생	-2917
▁지원금	-2918
▁지지자	-2919
▁진달래	-2920
▁초유의	-2921
▁최고치	-2922
▁최대치	-2923
▁최소화	-2924
▁최지만	-2925
▁취업자	-2926
▁터뜨린	-2927
▁특활비	-2928
▁항공편	-2929
▁화장실	-2930
공식입장	-2931
뉴스체크	-2932
북교육청	-2933
비트코인	-2934
아카데미	-2935
유럽증시	-2936
이슈분석	-2937
팀목자금	-2938
...11	-2939
”...‘	-2940
▁2000	-2941
▁2020	-2942
▁3000	-2943
▁검찰개혁	-2944
▁검찰총장	-2945
▁게임스톱	-2946
▁고병원성	-2947
▁공수처법	-2948
▁국정농단	-2949
▁긴급사용	-2950
▁도와달라	-2951
▁마라도나	-2952
▁백신접종	-2953
▁사전투표	-2954
▁셀트리온	-2955
▁손흥민과	-2956
▁싸우겠다	-2957
▁아시아나	-2958
▁요양병원	-2959
▁이상반응	-2960
▁자가격리	-2961
▁전수조사	-2962
▁주택공급	-2963
▁중소기업	-2964
▁집행정지	-2965
▁콜로라도	-2966
▁트럼프의	-2967
▁항소심도	-2968
독립운동가	-2969
동부구치소	-2970
배우조합상	-2971
▁김해신공항	-2972
▁도쿄올림픽	-2973
▁방탄소년단	-2974
▁실시간뉴스	-2975
▁준법감시위	-2976
나이트포커스	-2977
▁아스트라제네카	-2978
!]	-2979
"·	-2980
(6	-2981
,‘	-2982
.2	-2983
2]	-2984
31	-2985
36	-2986
90	-2987
?”	-2988
CC	-2989
CD	-2990
EO	-2991
FC	-2992
IT	-2993
KT	-2994
NA	-2995
NC	-2996
Oh	-2997
SD	-2998
SW	-2999
UV	-3000
XX	-3001
]'	-3002
]2	-3003
→1	-3004
▁#	-3005
▁-	-3006
▁T	-3007
▁e	-3008
▁n	-3009
▁♥	-3010
▁걷	-3011
▁괴	-3012
▁깨	-3013
▁꼴	-3014
▁납	-3015
▁냉	-3016
▁넣	-3017
▁놀	-3018
▁닫	-3019
▁댓	-3020
▁던	-3021
▁덜	-3022
▁덮	-3023
▁돼	-3024
▁뒷	-3025
▁딱	-3026
▁뜨	-3027
▁띄	-3028
▁래	-3029
▁롤	-3030
▁맑	-3031
▁맡	-3032
▁밑	-3033
▁벨	-3034
▁봇	-3035
▁붙	-3036
▁빚	-3037
▁빛	-3038
▁뿌	-3039
▁삶	-3040
▁싱	-3041
▁쓴	-3042
▁씨	-3043
▁얘	-3044
▁얻	-3045
▁엇	-3046
▁웨	-3047
▁잭	-3048
▁쥐	-3049
▁즐	-3050
▁쫓	-3051
▁찢	-3052
▁춘	-3053
▁콘	-3054
▁탐	-3055
▁탓	-3056
▁털	-3057
▁톱	-3058
▁펜	-3059
▁푸	-3060
▁핫	-3061
▁헌	-3062
▁헤	-3063
▁헬	-3064
▁흑	-3065
▁히	-3066
가장	-3067
간힘	-3068
감독	-3069
감사	-3070
개국	-3071
개인	-3072
갤럽	-3073
거짓	-3074
건물	-3075
건희	-3076
검색	-3077
게임	-3078
겼다	-3079
경보	-3080
계층	-3081
계획	-3082
고령	-3083
고서	-3084
고위	-3085
골든	-3086
공사	-3087
공유	-3088
공포	-3089
광훈	-3090
교계	-3091
교부	-3092
교사	-3093
교서	-3094
구글	-3095
구속	-3096
국대	-3097
국시	-3098
군부	-3099
AI	-3100
군에	-3101
규모	-3102
그알	-3103
금융	-3104
급한	-3105
긍정	-3106
기완	-3107
긴다	-3108
김영	-3109
나고	-3110
나래	-3111
나이	-3112
날두	-3113
났다	-3114
내나	-3115
내년	-3116
내야	-3117
너지	-3118
년만	-3119
년사	-3120
년생	-3121
년전	-3122
년파	-3123
누구	-3124
뉴딜	-3125
뉴얼	-3126
니가	-3127
니어	-3128
다시	-3129
당선	-3130
당은	-3131
대결	-3132
대생	-3133
대응	-3134
대한	-3135
대행	-3136
데믹	-3137
델링	-3138
돌파	-3139
동생	-3140
동성	-3141
동시	-3142
동안	-3143
되면	-3144
될까	-3145
두관	-3146
둥이	-3147
드리	-3148
드시	-3149
들이	-3150
라는	-3151
랑이	-3152
래미	-3153
램지	-3154
러나	-3155
러브	-3156
레기	-3157
레나	-3158
레알	-3159
로아	-3160
로운	-3161
류호	-3162
르고	-3163
르크	-3164
르트	-3165
리가	-3166
리거	-3167
리로	-3168
리즈	-3169
리포	-3170
리핑	-3171
립공	-3172
링어	-3173
마비	-3174
마스	-3175
막말	-3176
만개	-3177
만파	-3178
망이	-3179
맞이	-3180
매매	-3181
명박	-3182
명숙	-3183
모넨	-3184
몬스	-3185
무기	-3186
무도	-3187
무서	-3188
무실	-3189
무효	-3190
문가	-3191
문회	-3192
미네	-3193
미혼	-3194
민호	-3195
박스	-3196
박혜	-3197
반기	-3198
반대	-3199
반려	-3200
반전	-3201
받은	-3202
배송	-3203
백계	-3204
백스	-3205
버지	-3206
변종	-3207
별의	-3208
보궐	-3209
보기	-3210
보상	-3211
복지	-3212
부가	-3213
부모	-3214
부분	-3215
부양	-3216
부친	-3217
북한	-3218
북핵	-3219
분명	-3220
분의	-3221
불어	-3222
비리	-3223
비스	-3224
비협	-3225
사선	-3226
사옥	-3227
상승	-3228
상식	-3229
생활	-3230
선도	-3231
선박	-3232
선별	-3233
선에	-3234
섬세	-3235
성장	-3236
성재	-3237
성호	-3238
세연	-3239
소득	-3240
소연	-3241
소음	-3242
소주	-3243
소추	-3244
수능	-3245
수단	-3246
수부	-3247
수치	-3248
스코	-3249
스턴	-3250
시한	-3251
시흥	-3252
신고	-3253
신속	-3254
실성	-3255
실세	-3256
실업	-3257
실적	-3258
심이	-3259
심판	-3260
싶다	-3261
아동	-3262
아직	-3263
안일	-3264
안타	-3265
안한	-3266
알라	-3267
애인	-3268
약처	-3269
양주	-3270
어도	-3271
어떤	-3272
어붙	-3273
었을	-3274
에는	-3275
엔터	-3276
여권	-3277
역전	-3278
연대	-3279
연합	-3280
연휴	-3281
영웅	-3282
오닉	-3283
오리	-3284
요양	-3285
용진	-3286
우면	-3287
우치	-3288
운국	-3289
운하	-3290
울산	-3291
원에	-3292
원은	-3293
원장	-3294
원전	-3295
월성	-3296
웠다	-3297
위비	-3298
위조	-3299
위터	-3300
윗선	-3301
유산	-3302
은방	-3303
은석	-3304
은행	-3305
의견	-3306
의도	-3307
의식	-3308
의장	-3309
이드	-3310
이미	-3311
이의	-3312
이저	-3313
이적	-3314
이전	-3315
이중	-3316
인비	-3317
인상	-3318
일까	-3319
일만	-3320
일째	-3321
읽기	-3322
있는	-3323
자는	-3324
자료	-3325
자유	-3326
자책	-3327
자체	-3328
잡이	-3329
장기	-3330
재난	-3331
쟁이	-3332
저터	-3333
적산	-3334
전기	-3335
전날	-3336
전소	-3337
절한	-3338
점화	-3339
제약	-3340
조민	-3341
좋은	-3342
주간	-3343
주거	-3344
주말	-3345
주식	-3346
주에	-3347
준영	-3348
준표	-3349
중단	-3350
중히	-3351
증상	-3352
지구	-3353
지금	-3354
지방	-3355
지오	-3356
지지	-3357
지화	-3358
직무	-3359
진단	-3360
진주	-3361
진핑	-3362
질적	-3363
책감	-3364
천억	-3365
천지	-3366
철우	-3367
청탁	-3368
체로	-3369
초점	-3370
촛불	-3371
축구	-3372
출발	-3373
출산	-3374
춰야	-3375
취록	-3376
취물	-3377
취소	-3378
취재	-3379
친구	-3380
친문	-3381
침표	-3382
타는	-3383
타니	-3384
태원	-3385
택배	-3386
택트	-3387
텔레	-3388
통산	-3389
통신	-3390
튜브	-3391
트너	-3392
트롯	-3393
특별	-3394
티아	-3395
티즌	-3396
파업	-3397
페인	-3398
프릴	-3399
필요	-3400
하러	-3401
하철	-3402
학동	-3403
학원	-3404
합당	-3405
해진	-3406
향년	-3407
허가	-3408
현대	-3409
현주	-3410
협상	-3411
혜진	-3412
홍걸	-3413
화폐	-3414
환영	-3415
황사	-3416
회견	-3417
효과	-3418
효성	-3419
희룡	-3420
희숙	-3421
히려	-3422
..'	-3423
.4%	-3424
400	-3425
ing	-3426
·18	-3427
▁2~	-3428
▁3,	-3429
▁45	-3430
▁47	-3431
▁76	-3432
▁AS	-3433
▁MB	-3434
▁PD	-3435
▁SD	-3436
▁SH	-3437
▁TV	-3438
▁UN	-3439
▁‘2	-3440
▁“3	-3441
▁가결	-3442
▁가닥	-3443
▁가라	-3444
▁가르	-3445
▁가상	-3446
▁가야	-3447
▁가진	-3448
▁가해	-3449
▁간격	-3450
▁개시	-3451
▁개정	-3452
▁거론	-3453
▁거제	-3454
▁거취	-3455
▁검거	-3456
▁것은	-3457
▁격화	-3458
▁결단	-3459
▁결렬	-3460
▁경계	-3461
▁경질	-3462
▁고려	-3463
▁고발	-3464
▁고심	-3465
▁고용	-3466
▁고통	-3467
▁골프	-3468
▁공분	-3469
▁공약	-3470
▁공연	-3471
▁공인	-3472
▁관건	-3473
▁광명	-3474
▁교환	-3475
▁교황	-3476
▁구글	-3477
▁국가	-3478
▁국무	-3479
▁국산	-3480
▁국적	-3481
▁국정	-3482
▁군사	-3483
▁굴욕	-3484
▁귀국	-3485
▁귀순	-3486
▁규명	-3487
▁근거	-3488
▁근무	-3489
▁근접	-3490
▁금융	-3491
▁기관	-3492
▁기원	-3493
▁김민	-3494
▁김상	-3495
▁김영	-3496
▁김은	-3497
▁깎아	-3498
▁꺾고	-3499
▁끝나	-3500
▁끼쳐	-3501
▁나쁨	-3502
▁남긴	-3503
▁내려	-3504
▁너무	-3505
▁넘게	-3506
▁노래	-3507
▁노인	-3508
▁누가	-3509
▁늘리	-3510
▁다툼	-3511
▁단속	-3512
▁담배	-3513
▁당시	-3514
▁당원	-3515
▁당혹	-3516
▁대기	-3517
▁대리	-3518
▁대면	-3519
▁대법	-3520
▁도시	-3521
▁도움	-3522
▁도착	-3523
▁돌연	-3524
▁동기	-3525
▁동료	-3526
▁동안	-3527
▁된다	-3528
▁두고	-3529
▁드려	-3530
▁등극	-3531
▁등판	-3532
▁따로	-3533
▁때려	-3534
▁떠난	-3535
▁라인	-3536
▁루머	-3537
▁리모	-3538
▁마을	-3539
▁만날	-3540
▁만취	-3541
▁많아	-3542
▁많이	-3543
▁말라	-3544
▁맞서	-3545
▁맞은	-3546
▁매출	-3547
▁면접	-3548
▁명령	-3549
▁모르	-3550
▁모욕	-3551
▁모집	-3552
▁목표	-3553
▁몰수	-3554
▁무관	-3555
▁무너	-3556
▁물량	-3557
▁미성	-3558
▁밀양	-3559
▁박수	-3560
▁박차	-3561
▁반환	-3562
▁받고	-3563
▁방지	-3564
▁방침	-3565
▁배경	-3566
▁배당	-3567
▁배상	-3568
▁벌금	-3569
▁범행	-3570
▁변경	-3571
▁별채	-3572
▁병상	-3573
▁병원	-3574
▁봇물	-3575
▁봉쇄	-3576
▁봐야	-3577
▁부여	-3578
▁부재	-3579
▁부족	-3580
▁부진	-3581
▁분양	-3582
▁브렉	-3583
▁비교	-3584
▁비극	-3585
▁빅죠	-3586
▁빠져	-3587
▁빨리	-3588
▁사기	-3589
▁사저	-3590
▁삭제	-3591
▁산책	-3592
▁살래	-3593
▁상장	-3594
▁새해	-3595
▁생산	-3596
▁선도	-3597
▁선원	-3598
▁선출	-3599
▁설립	-3600
▁설명	-3601
▁설치	-3602
▁성명	-3603
▁성적	-3604
▁세금	-3605
▁세운	-3606
▁셀프	-3607
▁소개	-3608
▁소녀	-3609
▁소명	-3610
▁속출	-3611
▁손잡	-3612
▁송구	-3613
▁수능	-3614
▁수렴	-3615
▁수십	-3616
▁수익	-3617
▁수치	-3618
▁순간	-3619
▁숨져	-3620
▁슈퍼	-3621
▁승려	-3622
▁승부	-3623
▁시사	-3624
▁시인	-3625
▁시흥	-3626
▁신임	-3627
▁실수	-3628
▁실험	-3629
▁싶다	-3630
▁쏟아	-3631
▁아래	-3632
▁아쉬	-3633
▁아프	-3634
▁안정	-3635
▁안팎	-3636
▁않은	-3637
▁않을	-3638
▁알려	-3639
▁암살	-3640
▁애도	-3641
▁야권	-3642
▁어렵	-3643
▁어쩌	-3644
▁억류	-3645
▁얼굴	-3646
▁엇갈	-3647
▁여권	-3648
▁여야	-3649
▁역할	-3650
▁역행	-3651
▁연방	-3652
▁연예	-3653
▁연일	-3654
▁열린	-3655
▁열차	-3656
▁예능	-3657
▁오르	-3658
▁오른	-3659
▁오픈	-3660
▁완수	-3661
▁왔다	-3662
▁외국	-3663
▁외출	-3664
▁외할	-3665
▁우선	-3666
▁우즈	-3667
▁유감	-3668
▁유도	-3669
▁유리	-3670
▁유세	-3671
▁윤리	-3672
▁음원	-3673
▁의무	-3674
▁의장	-3675
▁이가	-3676
▁이뤄	-3677
▁이미	-3678
▁인용	-3679
▁일당	-3680
▁일어	-3681
▁일파	-3682
▁입양	-3683
▁입원	-3684
▁있나	-3685
▁자료	-3686
▁자해	-3687
▁작년	-3688
▁작성	-3689
▁잔류	-3690
▁잘못	-3691
▁잠재	-3692
▁잡아	-3693
▁장모	-3694
▁장성	-3695
▁재검	-3696
▁재고	-3697
▁재산	-3698
▁재정	-3699
▁잭팟	-3700
▁적용	-3701
▁전복	-3702
▁전쟁	-3703
▁전진	-3704
▁전체	-3705
▁전환	-3706
▁정당	-3707
▁정읍	-3708
▁정지	-3709
▁정직	-3710
▁조용	-3711
▁조종	-3712
▁존중	-3713
▁종결	-3714
▁주문	-3715
▁주식	-3716
▁주의	-3717
▁주일	-3718
▁주재	-3719
▁주춤	-3720
▁중립	-3721
▁중순	-3722
▁증오	-3723
▁지나	-3724
▁지목	-3725
▁지분	-3726
▁지키	-3727
▁직전	-3728
▁진심	-3729
▁집값	-3730
▁집유	-3731
▁찍혔	-3732
▁차별	-3733
▁차장	-3734
▁차트	-3735
▁착수	-3736
▁착용	-3737
▁착한	-3738
▁참담	-3739
▁참석	-3740
▁참패	-3741
▁처리	-3742
▁체결	-3743
▁체제	-3744
▁첼시	-3745
▁초등	-3746
▁초점	-3747
▁촉각	-3748
▁총재	-3749
▁최악	-3750
▁축하	-3751
▁출금	-3752
▁출장	-3753
▁측과	-3754
▁측근	-3755
▁친문	-3756
▁침입	-3757
▁캠프	-3758
▁커리	-3759
▁키워	-3760
▁타결	-3761
▁탄도	-3762
▁탄생	-3763
▁탈락	-3764
▁탈출	-3765
▁탈환	-3766
▁태풍	-3767
▁택배	-3768
▁탱크	-3769
▁통합	-3770
▁퇴임	-3771
▁투수	-3772
▁투약	-3773
▁트윗	-3774
▁파견	-3775
▁파운	-3776
▁파월	-3777
▁파티	-3778
▁판매	-3779
▁패배	-3780
▁평가	-3781
▁평생	-3782
▁포착	-3783
▁포항	-3784
▁품은	-3785
▁플라	-3786
▁피고	-3787
▁하사	-3788
▁하지	-3789
▁한강	-3790
▁한달	-3791
▁한정	-3792
▁합의	-3793
▁합작	-3794
▁합헌	-3795
▁해군	-3796
▁해야	-3797
▁해임	-3798
▁해제	-3799
▁행복	-3800
▁향한	-3801
▁현행	-3802
▁혐오	-3803
▁호투	-3804
▁화환	-3805
▁환경	-3806
▁환불	-3807
▁환자	-3808
▁흔적	-3809
가덕도	-3810
거래소	-3811
검사소	-3812
검색어	-3813
경기서	-3814
고양이	-3815
공매도	-3816
공화당	-3817
광화문	-3818
교도소	-3819
글로브	-3820
기사격	-3821
김여정	-3822
김정현	-3823
나경원	-3824
남관계	-3825
남아공	-3826
남인순	-3827
년파티	-3828
다음주	-3829
당사자	-3830
드바이	-3831
등학생	-3832
라가모	-3833
라미란	-3834
램지어	-3835
류호정	-3836
리아니	-3837
마이트	-3838
마지막	-3839
만달러	-3840
목소리	-3841
미사일	-3842
박근혜	-3843
박사방	-3844
방망이	-3845
벌백계	-3846
변호사	-3847
보건소	-3848
부부의	-3849
분만에	-3850
불화설	-3851
사면론	-3852
사회적	-3853
생태탕	-3854
선수권	-3855
성폭행	-3856
세모녀	-3857
스카스	-3858
습니다	-3859
시다발	-3860
시리즈	-3861
신교회	-3862
신년사	-3863
신도시	-3864
쌍둥이	-3865
아이유	-3866
아파트	-3867
앙지검	-3868
억달러	-3869
엠스플	-3870
영화상	-3871
예방법	-3872
외교부	-3873
우리는	-3874
위원회	-3875
이나래	-3876
이라도	-3877
이루다	-3878
이르면	-3879
이번엔	-3880
인금지	-3881
재개발	-3882
저터널	-3883
적모임	-3884
진정성	-3885
크리스	-3886
태탕집	-3887
티모넨	-3888
팰리스	-3889
페이스	-3890
프링어	-3891
프치히	-3892
플러스	-3893
플레이	-3894
피해자	-3895
학조사	-3896
한명숙	-3897
한미군	-3898
합니다	-3899
현대차	-3900
화이자	-3901
회의원	-3902
)...	-3903
...7	-3904
...8	-3905
2021	-3906
?···	-3907
▁"20	-3908
▁'16	-3909
▁'20	-3910
▁1.1	-3911
▁1.6	-3912
▁126	-3913
▁13%	-3914
▁130	-3915
▁140	-3916
▁230	-3917
▁80%	-3918
▁CEO	-3919
▁ITC	-3920
▁SON	-3921
▁SUV	-3922
▁WTO	-3923
▁거짓말	-3924
▁결별설	-3925
▁경비원	-3926
▁공매도	-3927
▁구급차	-3928
▁구속에	-3929
▁국정원	-3930
▁그래미	-3931
▁금은방	-3932
▁기다려	-3933
▁긴급대	-3934
▁김보경	-3935
▁김홍걸	-3936
▁나왔다	-3937
▁나흘째	-3938
▁남인순	-3939
▁노래방	-3940
▁노리는	-3941
▁노미네	-3942
▁노영민	-3943
▁녹취록	-3944
▁늘었다	-3945
▁다저스	-3946
▁다주택	-3947
▁대국민	-3948
▁대통합	-3949
▁더불어	-3950
▁드디어	-3951
▁디지털	-3952
▁때문에	-3953
▁라인업	-3954
▁마침표	-3955
▁매뉴얼	-3956
▁메시지	-3957
▁멕시코	-3958
▁무엇이	-3959
▁박나래	-3960
▁박인비	-3961
▁박철우	-3962
▁박형준	-3963
▁반드시	-3964
▁반려견	-3965
▁방위비	-3966
▁백기완	-3967
▁백지화	-3968
▁법원에	-3969
▁보냈다	-3970
▁봐주기	-3971
▁부산시	-3972
▁부양책	-3973
▁부작용	-3974
▁부회장	-3975
▁불분명	-3976
▁브랜드	-3977
▁브리핑	-3978
▁블링컨	-3979
▁비공개	-3980
▁비판한	-3981
▁비혼모	-3982
▁빌보드	-3983
▁사과한	-3984
▁산업부	-3985
▁살인죄	-3986
▁살해한	-3987
▁서비스	-3988
▁서울서	-3989
▁설민석	-3990
▁성매매	-3991
▁성탄절	-3992
▁성폭력	-3993
▁세월호	-3994
▁소규모	-3995
▁수사권	-3996
▁수에즈	-3997
▁스트레	-3998
▁시몬스	-3999
▁시상식	-4000
▁신기루	-4001
▁신도시	-4002
▁악의적	-4003
▁양부모	-4004
▁양양서	-4005
▁어려워	-4006
▁에이스	-4007
▁여배우	-4008
▁여학생	-4009
▁열병식	-4010
▁오늘의	-4011
▁오리농	-4012
▁용의자	-4013
▁우려에	-4014
▁위기의	-4015
▁위안부	-4016
▁유승준	-4017
▁의식한	-4018
▁이겼다	-4019
▁이승우	-4020
▁이승환	-4021
▁이어져	-4022
▁이용자	-4023
▁이틀간	-4024
▁이틀째	-4025
▁인프라	-4026
▁일가족	-4027
▁일단락	-4028
▁잇따라	-4029
▁있지만	-4030
▁자택서	-4031
▁재사용	-4032
▁재점화	-4033
▁재확산	-4034
▁전문가	-4035
▁전세계	-4036
▁전해철	-4037
▁정상화	-4038
▁정성호	-4039
▁정우영	-4040
▁정치인	-4041
▁제대로	-4042
▁조건부	-4043
▁죄책감	-4044
▁준우승	-4045
▁중요한	-4046
▁증손자	-4047
▁지하철	-4048
▁진화와	-4049
▁찾아야	-4050
▁총격에	-4051
▁최고가	-4052
▁출근길	-4053
▁치료제	-4054
▁치명적	-4055
▁친환경	-4056
▁코리아	-4057
▁크로아	-4058
▁텍사스	-4059
▁토론토	-4060
▁판공비	-4061
▁판단에	-4062
▁포기한	-4063
▁폭설에	-4064
▁프랑스	-4065
▁플러스	-4066
▁할머니	-4067
▁해맞이	-4068
▁현실화	-4069
▁혐의로	-4070
▁혼조세	-4071
▁홍준표	-4072
▁황의조	-4073
▁효과적	-4074
▁희생자	-4075
공수처법	-4076
노마스크	-4077
드바이저	-4078
딥페이크	-4079
미세먼지	-4080
박영선과	-4081
발렌시아	-4082
사법농단	-4083
소상공인	-4084
손흥민과	-4085
실세무서	-4086
싱어게인	-4087
아주경제	-4088
위안부는	-4089
이저리그	-4090
판사사찰	-4091
페라가모	-4092
푸스카스	-4093
헤이나래	-4094
후쿠시마	-4095
...10	-4096
...16	-4097
?...'	-4098
?’...	-4099
▁'320	-4100
▁1500	-4101
▁2030	-4102
▁8000	-4103
▁강제추행	-4104
▁공공임대	-4105
▁교통사고	-4106
▁국민청원	-4107
▁국회의원	-4108
▁기자회견	-4109
▁남자배구	-4110
▁노선영에	-4111
▁대법원장	-4112
▁동시다발	-4113
▁리모델링	-4114
▁명예훼손	-4115
▁미세먼지	-4116
▁반려동물	-4117
▁배구선수	-4118
▁법무차관	-4119
▁브렉시트	-4120
▁비상사태	-4121
▁사과에도	-4122
▁사상최고	-4123
▁사실무근	-4124
▁사퇴해야	-4125
▁손해배상	-4126
▁송년파티	-4127
▁쇼트트랙	-4128
▁아이오닉	-4129
▁안전하고	-4130
▁연쇄감염	-4131
▁영업금지	-4132
▁외할머니	-4133
▁유튜버에	-4134
▁이낙연에	-4135
▁일파만파	-4136
▁자율주행	-4137
▁재상고심	-4138
▁주일대사	-4139
▁집단면역	-4140
▁최종판결	-4141
▁축구선수	-4142
▁취소소송	-4143
▁취약계층	-4144
▁층간소음	-4145
▁코로나가	-4146
▁탄핵소추	-4147
▁투기의혹	-4148
▁트럼프는	-4149
▁트레이드	-4150
▁포르투갈	-4151
▁흥국생명	-4152
도쿄올림픽	-4153
선별검사소	-4154
스포츠타임	-4155
이너마이트	-4156
▁[2020	-4157
▁골든글로브	-4158
▁공격포인트	-4159
▁공인인증서	-4160
▁노미네이트	-4161
▁동부구치소	-4162
▁버팀목자금	-4163
▁열린민주당	-4164
▁축구대표팀	-4165
▁크로아티아	-4166
유럽의약품청	-4167
▁감염병예방법	-4168
▁더불어민주당	-4169
!”	-4170
",	-4171
'·	-4172
'→	-4173
+6	-4174
1%	-4175
1'	-4176
43	-4177
49	-4178
52	-4179
88	-4180
98	-4181
AC	-4182
BA	-4183
EM	-4184
PS	-4185
SM	-4186
TT	-4187
TX	-4188
]3	-4189
’)	-4190
⁄3	-4191
▁→	-4192
▁獨	-4193
▁겹	-4194
▁꼭	-4195
▁닷	-4196
▁든	-4197
▁땀	-4198
▁땐	-4199
1,	-4200
45	-4201
93	-4202
·6	-4203
▁V	-4204
▁亞	-4205
▁떡	-4206
▁떼	-4207
▁룸	-4208
▁멀	-4209
▁몽	-4210
▁묶	-4211
▁뮤	-4212
▁잊	-4213
▁큐	-4214
▁턴	-4215
▁폴	-4216
▁휩	-4217
가는	-4218
가락	-4219
간섭	-4220
갈이	-4221
감에	-4222
강도	-4223
강제	-4224
개편	-4225
결에	-4226
고소	-4227
고자	-4228
곪은	-4229
공간	-4230
공공	-4231
과거	-4232
광일	-4233
광장	-4234
교생	-4235
구매	-4236
국에	-4237
국장	-4238
군민	-4239
권남	-4240
권력	-4241
그냥	-4242
그맨	-4243
극기	-4244
금한	-4245
금해	-4246
기분	-4247
기존	-4248
길래	-4249
길론	-4250
김기	-4251
김치	-4252
깜짝	-4253
깻잎	-4254
나서	-4255
남편	-4256
낭비	-4257
내달	-4258
냈나	-4259
년자	-4260
눈물	-4261
다나	-4262
닥터	-4263
단은	-4264
답게	-4265
당한	-4266
당해	-4267
대가	-4268
대기	-4269
대는	-4270
대박	-4271
대신	-4272
대안	-4273
대위	-4274
대회	-4275
데브	-4276
데스	-4277
데이	-4278
도심	-4279
독설	-4280
독제	-4281
돈내	-4282
동북	-4283
동의	-4284
돼지	-4285
드래	-4286
드림	-4287
들과	-4288
들썩	-4289
등증	-4290
등회	-4291
라고	-4292
라니	-4293
라마	-4294
래프	-4295
랭킹	-4296
런던	-4297
런스	-4298
렉키	-4299
13	-4300
▁끌	-4301
▁냄	-4302
강수	-4303
경남	-4304
고의	-4305
공수	-4306
교수	-4307
기아	-4308
김장	-4309
날의	-4310
네트	-4311
농협	-4312
대검	-4313
려움	-4314
력한	-4315
로는	-4316
료도	-4317
루엔	-4318
루타	-4319
르단	-4320
르켈	-4321
리수	-4322
리한	-4323
린더	-4324
린지	-4325
많은	-4326
매수	-4327
매우	-4328
머리	-4329
먹통	-4330
먼트	-4331
메가	-4332
멘트	-4333
면서	-4334
명꼴	-4335
명씩	-4336
명에	-4337
명예	-4338
무죄	-4339
무협	-4340
무형	-4341
미리	-4342
미수	-4343
미향	-4344
바겐	-4345
바페	-4346
반성	-4347
반입	-4348
배민	-4349
버드	-4350
번방	-4351
번호	-4352
벌거	-4353
법한	-4354
벼락	-4355
병설	-4356
병인	-4357
복회	-4358
본부	-4359
봉진	-4360
봉현	-4361
부장	-4362
북구	-4363
분노	-4364
분에	-4365
브이	-4366
브콜	-4367
빈과	-4368
빈센	-4369
사관	-4370
사냥	-4371
사의	-4372
산시	-4373
산의	-4374
산타	-4375
상습	-4376
상위	-4377
상의	-4378
상증	-4379
상한	-4380
새롬	-4381
선언	-4382
성구	-4383
성환	-4384
세영	-4385
세종	-4386
셋값	-4387
속세	-4388
손소	-4389
수비	-4390
수용	-4391
수출	-4392
숙현	-4393
슈퍼	-4394
스는	-4395
스케	-4396
스토	-4397
승연	-4398
시대	-4399
89	-4400
KI	-4401
SJ	-4402
▁西	-4403
▁밟	-4404
▁뽑	-4405
▁퍼	-4406
간불	-4407
강화	-4408
고생	-4409
관료	-4410
달뜨	-4411
돌듯	-4412
동료	-4413
두는	-4414
르빗	-4415
름은	-4416
림길	-4417
바람	-4418
뱃속	-4419
분간	-4420
비판	-4421
손실	-4422
수급	-4423
승인	-4424
시도	-4425
시라	-4426
시우	-4427
시험	-4428
시황	-4429
신다	-4430
신상	-4431
신영	-4432
신원	-4433
신이	-4434
신한	-4435
실패	-4436
심한	-4437
싸늘	-4438
싸움	-4439
쏠린	-4440
아경	-4441
아기	-4442
아닌	-4443
아르	-4444
악중	-4445
안정	-4446
안히	-4447
앉아	-4448
야합	-4449
어가	-4450
어지	-4451
어진	-4452
억지	-4453
언주	-4454
언팩	-4455
엄령	-4456
업소	-4457
엘렌	-4458
연수	-4459
연예	-4460
영표	-4461
오로	-4462
오프	-4463
오픈	-4464
온난	-4465
올려	-4466
완벽	-4467
외출	-4468
요구	-4469
요즘	-4470
욕조	-4471
우라	-4472
우선	-4473
우와	-4474
우주	-4475
웍스	-4476
원의	-4477
원조	-4478
웨덴	-4479
위기	-4480
위성	-4481
유부	-4482
유액	-4483
유엔	-4484
으려	-4485
의점	-4486
이방	-4487
이삭	-4488
이야	-4489
이에	-4490
이진	-4491
이팅	-4492
인과	-4493
인권	-4494
인보	-4495
인아	-4496
인자	-4497
일보	-4498
일부	-4499
5,	-4500
AM	-4501
ES	-4502
▁욕	-4503
▁쾌	-4504
계옥	-4505
단속	-4506
더십	-4507
도한	-4508
라렌	-4509
라서	-4510
맨유	-4511
머스	-4512
무니	-4513
밀양	-4514
발사	-4515
배임	-4516
보수	-4517
보험	-4518
본격	-4519
봉투	-4520
생이	-4521
서운	-4522
성태	-4523
세워	-4524
수첩	-4525
압박	-4526
앵커	-4527
야당	-4528
어망	-4529
어백	-4530
연습	-4531
염병	-4532
요한	-4533
우어	-4534
윤호	-4535
으론	-4536
일로	-4537
일정	-4538
자바	-4539
잘못	-4540
장이	-4541
재범	-4542
저질	-4543
적합	-4544
전드	-4545
전반	-4546
전서	-4547
전세	-4548
전참	-4549
전포	-4550
전환	-4551
젊은	-4552
접대	-4553
정사	-4554
정작	-4555
정협	-4556
정호	-4557
제니	-4558
제자	-4559
젠더	-4560
져야	-4561
조금	-4562
조작	-4563
조한	-4564
주는	-4565
주도	-4566
주면	-4567
주빈	-4568
주서	-4569
주파	-4570
중편	-4571
즉각	-4572
지기	-4573
지세	-4574
지은	-4575
지표	-4576
진흥	-4577
질까	-4578
질러	-4579
질신	-4580
쯔양	-4581
차가	-4582
찬원	-4583
창원	-4584
책골	-4585
청년	-4586
청소	-4587
청약	-4588
체계	-4589
체적	-4590
초적	-4591
촌오	-4592
최저	-4593
추가	-4594
출연	-4595
출자	-4596
출전	-4597
층서	-4598
층엔	-4599
-3	-4600
46	-4601
→"	-4602
▁安	-4603
▁궤	-4604
▁둔	-4605
▁쉽	-4606
▁짝	-4607
▁척	-4608
▁햄	-4609
거운	-4610
거제	-4611
공세	-4612
교민	-4613
극단	-4614
노조	-4615
니저	-4616
동민	-4617
동화	-4618
래식	-4619
렉센	-4620
머그	-4621
무고	-4622
봉주	-4623
봐야	-4624
비자	-4625
사우	-4626
속도	-4627
순간	-4628
스널	-4629
스로	-4630
야권	-4631
어버	-4632
업체	-4633
여당	-4634
여왕	-4635
왜곡	-4636
이버	-4637
이은	-4638
이제	-4639
익위	-4640
인혜	-4641
재하	-4642
조정	-4643
지길	-4644
직후	-4645
청래	-4646
출동	-4647
치로	-4648
침묵	-4649
캠프	-4650
컴백	-4651
케리	-4652
케미	-4653
켓서	-4654
콘조	-4655
쿼드	-4656
큐브	-4657
키로	-4658
키스	-4659
타르	-4660
탄가	-4661
태영	-4662
택근	-4663
택시	-4664
탬파	-4665
테랑	-4666
텐더	-4667
토화	-4668
투명	-4669
투사	-4670
트남	-4671
트로	-4672
트포	-4673
특혜	-4674
티드	-4675
티칸	-4676
팀은	-4677
팩트	-4678
펑펑	-4679
포르	-4680
포폴	-4681
표준	-4682
프스	-4683
피플	-4684
필드	-4685
필의	-4686
핑크	-4687
하던	-4688
하락	-4689
학규	-4690
학회	-4691
한테	-4692
합헌	-4693
항석	-4694
항에	-4695
해안	-4696
해양	-4697
해킹	-4698
핵폭	-4699
17	-4700
PM	-4701
▁람	-4702
▁벽	-4703
강남	-4704
경완	-4705
과한	-4706
군의	-4707
규탄	-4708
남성	-4709
놀자	-4710
댄스	-4711
도껏	-4712
만의	-4713
명도	-4714
명만	-4715
문에	-4716
벗은	-4717
선빵	-4718
소통	-4719
쇼핑	-4720
수요	-4721
스텔	-4722
스틱	-4723
스페	-4724
아니	-4725
억에	-4726
역시	-4727
연결	-4728
오른	-4729
용훈	-4730
우려	-4731
위도	-4732
유죄	-4733
작심	-4734
재인	-4735
적극	-4736
제원	-4737
종전	-4738
주째	-4739
준환	-4740
집유	-4741
총기	-4742
추위	-4743
충남	-4744
키움	-4745
태풍	-4746
테크	-4747
토론	-4748
패밀	-4749
폐쇄	-4750
프콘	-4751
한은	-4752
할것	-4753
핵심	-4754
행기	-4755
행사	-4756
헌수	-4757
호기	-4758
화점	-4759
화학	-4760
확인	-4761
활한	-4762
회복	-4763
회용	-4764
효리	-4765
훈장	-4766
흔들	-4767
희의	-4768
히트	-4769
"·"	-4770
.5%	-4771
.8%	-4772
.9%	-4773
3%,	-4774
LBM	-4775
MBC	-4776
PEC	-4777
SDI	-4778
SON	-4779
USB	-4780
·60	-4781
▁"8	-4782
▁46	-4783
▁52	-4784
▁71	-4785
▁CN	-4786
▁FI	-4787
▁IM	-4788
▁MC	-4789
▁PC	-4790
▁US	-4791
▁XX	-4792
▁YG	-4793
▁“5	-4794
▁′′	-4795
▁가를	-4796
▁가을	-4797
▁가정	-4798
▁가치	-4799
%→	-4800
+1	-4801
▁쉬	-4802
간부	-4803
강행	-4804
결승	-4805
국제	-4806
기부	-4807
깊은	-4808
끄럼	-4809
난에	-4810
내부	-4811
다리	-4812
대란	-4813
대법	-4814
동동	-4815
됐던	-4816
둘러	-4817
러싸	-4818
루프	-4819
르도	-4820
를린	-4821
묵묵	-4822
민수	-4823
민우	-4824
박한	-4825
벅지	-4826
변수	-4827
본인	-4828
부에	-4829
분화	-4830
블랙	-4831
살해	-4832
석상	-4833
섭다	-4834
성명	-4835
세액	-4836
시안	-4837
신애	-4838
예술	-4839
온도	-4840
올인	-4841
운규	-4842
윤상	-4843
인드	-4844
입에	-4845
장애	-4846
정희	-4847
조계	-4848
진석	-4849
총수	-4850
항의	-4851
행진	-4852
허위	-4853
현지	-4854
협력	-4855
호가	-4856
효주	-4857
▁[1	-4858
▁각국	-4859
▁간판	-4860
▁강사	-4861
▁강의	-4862
▁강진	-4863
▁개관	-4864
▁거지	-4865
▁건의	-4866
▁걸어	-4867
▁검증	-4868
▁겨냥	-4869
▁결심	-4870
▁결의	-4871
▁경악	-4872
▁경증	-4873
▁경호	-4874
▁계정	-4875
▁고개	-4876
▁고민	-4877
▁고비	-4878
▁곤이	-4879
▁공백	-4880
▁공익	-4881
▁과장	-4882
▁광저	-4883
▁광진	-4884
▁괴물	-4885
▁구성	-4886
▁군경	-4887
▁그만	-4888
▁긍정	-4889
▁기간	-4890
▁기능	-4891
▁기아	-4892
▁김웅	-4893
▁김형	-4894
▁깊은	-4895
▁깊이	-4896
▁까닭	-4897
▁꼴등	-4898
▁끝내	-4899
경영	-4900
급등	-4901
꾸벅	-4902
남동	-4903
노백	-4904
두천	-4905
르몬	-4906
리퍼	-4907
매일	-4908
명령	-4909
버거	-4910
뻔뻔	-4911
상태	-4912
생생	-4913
숙박	-4914
싣고	-4915
아침	-4916
악성	-4917
연봉	-4918
연쇄	-4919
영동	-4920
웅산	-4921
월세	-4922
이노	-4923
임기	-4924
재성	-4925
재해	-4926
재훈	-4927
전막	-4928
전상	-4929
절반	-4930
정용	-4931
제기	-4932
진성	-4933
집트	-4934
찍은	-4935
차범	-4936
총무	-4937
치락	-4938
치승	-4939
친형	-4940
칠까	-4941
타이	-4942
태양	-4943
택연	-4944
통첩	-4945
티골	-4946
판길	-4947
포상	-4948
풀이	-4949
해제	-4950
헨과	-4951
환보	-4952
희동	-4953
▁69	-4954
▁낙인	-4955
▁날개	-4956
▁남녀	-4957
▁남부	-4958
▁내린	-4959
▁내외	-4960
▁냉기	-4961
▁넣어	-4962
▁네고	-4963
▁놀라	-4964
▁농도	-4965
▁농장	-4966
▁농촌	-4967
▁높아	-4968
▁뇌물	-4969
▁느껴	-4970
▁느끼	-4971
▁담화	-4972
▁답변	-4973
▁닷새	-4974
▁대립	-4975
▁대만	-4976
▁대패	-4977
▁댓글	-4978
▁던진	-4979
▁덜미	-4980
▁덮을	-4981
▁독려	-4982
▁독립	-4983
▁동생	-4984
▁되나	-4985
▁되찾	-4986
▁두배	-4987
▁둘째	-4988
▁들끓	-4989
▁떠나	-4990
▁떨어	-4991
▁뚫은	-4992
▁래퍼	-4993
▁레드	-4994
▁레이	-4995
▁로봇	-4996
▁로비	-4997
▁롤러	-4998
▁룸메	-4999
▁및	-5000
▁샀	-5001
▁샌	-5002
▁섹	-5003
▁움	-5004
▁책	-5005
고검	-5006
기간	-5007
꺼이	-5008
라면	-5009
라운	-5010
러운	-5011
러워	-5012
럽다	-5013
림청	-5014
만대	-5015
매경	-5016
메라	-5017
메랑	-5018
민국	-5019
번역	-5020
벼랑	-5021
병진	-5022
브걸	-5023
사제	-5024
사직	-5025
산서	-5026
수자	-5027
안산	-5028
안쓰	-5029
야간	-5030
어러	-5031
었나	-5032
연소	-5033
예리	-5034
이고	-5035
이웨	-5036
일리	-5037
자격	-5038
자기	-5039
전체	-5040
주주	-5041
즉시	-5042
차장	-5043
초환	-5044
커창	-5045
타자	-5046
풀리	-5047
하려	-5048
호도	-5049
▁1%	-5050
▁49	-5051
▁PL	-5052
▁‘5	-5053
▁감시	-5054
▁감싸	-5055
▁것도	-5056
▁기회	-5057
▁다음	-5058
▁대박	-5059
▁마구	-5060
▁마린	-5061
▁막걸	-5062
▁막아	-5063
▁말고	-5064
▁말한	-5065
▁망신	-5066
▁맞는	-5067
▁매수	-5068
▁매춘	-5069
▁머물	-5070
▁멈춰	-5071
▁면담	-5072
▁면적	-5073
▁면직	-5074
▁몰라	-5075
▁무장	-5076
▁무주	-5077
▁묵묵	-5078
▁뭐가	-5079
▁뮤직	-5080
▁미래	-5081
▁민심	-5082
▁민정	-5083
▁믿어	-5084
▁바뀌	-5085
▁바보	-5086
▁발전	-5087
▁발탁	-5088
▁밝힌	-5089
▁방해	-5090
▁방화	-5091
▁배신	-5092
▁배제	-5093
▁버스	-5094
▁번리	-5095
▁벌써	-5096
▁범죄	-5097
▁벗으	-5098
▁변화	-5099
(2	-5100
72	-5101
RT	-5102
▁슬	-5103
▁엠	-5104
▁캘	-5105
▁탑	-5106
경로	-5107
경섭	-5108
기를	-5109
낸다	-5110
단을	-5111
렀다	-5112
로빅	-5113
릭터	-5114
명근	-5115
민스	-5116
색깔	-5117
신할	-5118
아리	-5119
았어	-5120
양평	-5121
엘비	-5122
예진	-5123
왕따	-5124
으나	-5125
제차	-5126
중동	-5127
중훈	-5128
테인	-5129
투트	-5130
프듀	-5131
험생	-5132
BRT	-5133
▁CD	-5134
▁김동	-5135
▁노바	-5136
▁단독	-5137
▁도발	-5138
▁들고	-5139
▁마셔	-5140
▁봄날	-5141
▁봉합	-5142
▁부부	-5143
▁부분	-5144
▁북부	-5145
▁분류	-5146
▁불복	-5147
▁붙자	-5148
▁브렌	-5149
▁비중	-5150
▁빙하	-5151
▁빛난	-5152
▁뿌리	-5153
▁사무	-5154
▁살면	-5155
▁살펴	-5156
▁상담	-5157
▁새벽	-5158
▁색깔	-5159
▁샌디	-5160
▁생활	-5161
▁샤론	-5162
▁서당	-5163
▁선행	-5164
▁섬세	-5165
▁세력	-5166
▁소유	-5167
▁소음	-5168
▁소폭	-5169
▁소환	-5170
▁손님	-5171
▁수립	-5172
▁수송	-5173
▁수집	-5174
▁쉽지	-5175
▁슈팅	-5176
▁스포	-5177
▁시절	-5178
▁신라	-5179
▁신혼	-5180
▁신화	-5181
▁싣고	-5182
▁실체	-5183
▁심야	-5184
▁싱크	-5185
▁쏠린	-5186
▁씨젠	-5187
▁아산	-5188
▁악어	-5189
▁악플	-5190
▁안내	-5191
▁안착	-5192
▁안해	-5193
▁앞당	-5194
▁야기	-5195
▁약속	-5196
▁어선	-5197
▁엄격	-5198
▁엄청	-5199
?[	-5200
nd	-5201
’·	-5202
▁웃	-5203
▁잰	-5204
▁졸	-5205
▁좀	-5206
▁줘	-5207
▁창	-5208
▁챌	-5209
강해	-5210
같은	-5211
겹다	-5212
교안	-5213
기획	-5214
냅챗	-5215
동수	-5216
려금	-5217
로감	-5218
로시	-5219
많이	-5220
상철	-5221
설에	-5222
성화	-5223
연락	-5224
오유	-5225
유경	-5226
인멸	-5227
종교	-5228
종필	-5229
줄이	-5230
진압	-5231
체전	-5232
클롭	-5233
한화	-5234
합도	-5235
합동	-5236
해당	-5237
▁GS	-5238
▁가짜	-5239
▁거절	-5240
▁게시	-5241
▁난동	-5242
▁내집	-5243
▁다행	-5244
▁더한	-5245
▁돌봐	-5246
▁명운	-5247
▁무시	-5248
▁보유	-5249
▁복구	-5250
▁사천	-5251
▁신한	-5252
▁알아	-5253
▁양모	-5254
▁업그	-5255
▁없나	-5256
▁연계	-5257
▁연두	-5258
▁연출	-5259
▁영원	-5260
▁예약	-5261
▁오나	-5262
▁오지	-5263
▁옥살	-5264
▁완파	-5265
▁왕따	-5266
▁외면	-5267
▁용산	-5268
▁용서	-5269
▁울먹	-5270
▁울버	-5271
▁움직	-5272
▁원칙	-5273
▁월급	-5274
▁월세	-5275
▁위력	-5276
▁유엔	-5277
▁유통	-5278
▁의결	-5279
▁의도	-5280
▁이견	-5281
▁이정	-5282
▁이주	-5283
▁인니	-5284
▁일시	-5285
▁일으	-5286
▁일축	-5287
▁잃은	-5288
▁임원	-5289
▁입어	-5290
▁입증	-5291
▁있을	-5292
▁작은	-5293
▁잔치	-5294
▁잡은	-5295
▁장식	-5296
▁장타	-5297
▁재소	-5298
▁전격	-5299
56	-5300
▁짧	-5301
▁찌	-5302
▁캡	-5303
▁킥	-5304
▁텃	-5305
▁훌	-5306
▁훤	-5307
▁흐	-5308
거부	-5309
기고	-5310
다혜	-5311
대용	-5312
덕제	-5313
도암	-5314
랜스	-5315
말린	-5316
말말	-5317
면제	-5318
모자	-5319
속화	-5320
영기	-5321
완성	-5322
우드	-5323
전화	-5324
주가	-5325
최근	-5326
험군	-5327
현희	-5328
▁72	-5329
▁9·	-5330
▁개입	-5331
▁고지	-5332
▁기증	-5333
▁드림	-5334
▁등록	-5335
▁모여	-5336
▁무선	-5337
▁반격	-5338
▁방심	-5339
▁보여	-5340
▁스톤	-5341
▁원샷	-5342
▁유의	-5343
▁이간	-5344
▁이끈	-5345
▁이끌	-5346
▁이민	-5347
▁이별	-5348
▁이직	-5349
▁이철	-5350
▁임시	-5351
▁자매	-5352
▁전권	-5353
▁전념	-5354
▁전락	-5355
▁절대	-5356
▁접수	-5357
▁정국	-5358
▁정도	-5359
▁정자	-5360
▁제시	-5361
▁제조	-5362
▁조금	-5363
▁조처	-5364
▁족발	-5365
▁족쇄	-5366
▁존슨	-5367
▁종목	-5368
▁좋아	-5369
▁주간	-5370
▁주소	-5371
▁준수	-5372
▁줄어	-5373
▁줬다	-5374
▁지민	-5375
▁직장	-5376
▁질타	-5377
▁집서	-5378
▁쯔양	-5379
▁찢고	-5380
▁차기	-5381
▁차이	-5382
▁찬성	-5383
▁처녀	-5384
▁철학	-5385
▁첫날	-5386
▁청소	-5387
▁체류	-5388
▁춘천	-5389
▁출근	-5390
▁출생	-5391
▁충돌	-5392
▁취객	-5393
▁취급	-5394
▁치솟	-5395
▁치여	-5396
▁친서	-5397
▁친전	-5398
▁칼럼	-5399
]1	-5400
경전	-5401
과속	-5402
신뢰	-5403
어곡	-5404
이거	-5405
인수	-5406
인에	-5407
잔고	-5408
처벌	-5409
특검	-5410
19,	-5411
19·	-5412
800	-5413
▁23	-5414
▁35	-5415
▁36	-5416
▁공유	-5417
▁공판	-5418
▁그어	-5419
▁김기	-5420
▁김남	-5421
▁김재	-5422
▁대북	-5423
▁대세	-5424
▁대장	-5425
▁대처	-5426
▁모시	-5427
▁무상	-5428
▁부른	-5429
▁부처	-5430
▁비보	-5431
▁빠른	-5432
▁사는	-5433
▁사랑	-5434
▁사법	-5435
▁사임	-5436
▁사흘	-5437
▁수감	-5438
▁수당	-5439
▁수위	-5440
▁시각	-5441
▁시급	-5442
▁시설	-5443
▁신설	-5444
▁신작	-5445
▁아낀	-5446
▁억제	-5447
▁오라	-5448
▁오류	-5449
▁오전	-5450
▁오프	-5451
▁오피	-5452
▁의령	-5453
▁일진	-5454
▁전광	-5455
▁전년	-5456
▁전재	-5457
▁전주	-5458
▁전직	-5459
▁전혀	-5460
▁정수	-5461
▁정화	-5462
▁정확	-5463
▁정황	-5464
▁주는	-5465
▁주변	-5466
▁지구	-5467
▁지인	-5468
▁지진	-5469
▁지휘	-5470
▁캡틴	-5471
▁커쇼	-5472
▁코치	-5473
▁콘서	-5474
▁쾌거	-5475
▁킹덤	-5476
▁타령	-5477
▁타자	-5478
▁태양	-5479
▁태어	-5480
▁탬파	-5481
▁털렸	-5482
▁텃밭	-5483
▁테러	-5484
▁통관	-5485
▁통장	-5486
▁통증	-5487
▁튜브	-5488
▁파업	-5489
▁팔고	-5490
▁펜스	-5491
▁편입	-5492
▁편집	-5493
▁평양	-5494
▁평창	-5495
▁폐막	-5496
▁폐지	-5497
▁포용	-5498
▁폭증	-5499
기온	-5500
리카	-5501
명이	-5502
문재	-5503
법관	-5504
본채	-5505
유입	-5506
의당	-5507
장중	-5508
죄부	-5509
해성	-5510
▁가가	-5511
▁가열	-5512
▁감동	-5513
▁강간	-5514
▁강경	-5515
▁강릉	-5516
▁강요	-5517
▁강한	-5518
▁경력	-5519
▁경선	-5520
▁경험	-5521
▁고객	-5522
▁고속	-5523
▁고찰	-5524
▁고향	-5525
▁과잉	-5526
▁국립	-5527
▁기념	-5528
▁기본	-5529
▁기초	-5530
▁내사	-5531
▁다리	-5532
▁등에	-5533
▁몰래	-5534
▁무산	-5535
▁미만	-5536
▁미투	-5537
▁박상	-5538
▁박진	-5539
▁발간	-5540
▁발끈	-5541
▁발열	-5542
▁보지	-5543
▁비행	-5544
▁서구	-5545
▁성착	-5546
▁시청	-5547
▁신년	-5548
▁없애	-5549
▁없앤	-5550
▁없을	-5551
▁여당	-5552
▁여자	-5553
▁유공	-5554
▁유치	-5555
▁유포	-5556
▁유혈	-5557
▁인과	-5558
▁인식	-5559
▁일삼	-5560
▁일일	-5561
▁일제	-5562
▁재계	-5563
▁재차	-5564
▁전날	-5565
▁제도	-5566
▁제동	-5567
▁제소	-5568
▁제자	-5569
▁제지	-5570
▁종합	-5571
▁중개	-5572
▁중기	-5573
▁추경	-5574
▁추적	-5575
▁카톡	-5576
▁테크	-5577
▁통신	-5578
▁표현	-5579
▁푸른	-5580
▁풀려	-5581
▁하나	-5582
▁하원	-5583
▁하차	-5584
▁학살	-5585
▁한때	-5586
▁한숨	-5587
▁한인	-5588
▁한진	-5589
▁할지	-5590
▁합법	-5591
▁합정	-5592
▁항의	-5593
▁해경	-5594
▁해고	-5595
▁해소	-5596
▁해운	-5597
▁행사	-5598
▁향년	-5599
.3	-5600
▁솔	-5601
관서	-5602
도박	-5603
렉스	-5604
발칵	-5605
자원	-5606
전파	-5607
청산	-5608
출마	-5609
▁65	-5610
▁75	-5611
▁거듭	-5612
▁거주	-5613
▁검색	-5614
▁구매	-5615
▁나눌	-5616
▁나발	-5617
▁나서	-5618
▁나왔	-5619
▁남양	-5620
▁넘을	-5621
▁다녀	-5622
▁다를	-5623
▁다름	-5624
▁도마	-5625
▁도주	-5626
▁마디	-5627
▁마약	-5628
▁마포	-5629
▁맞을	-5630
▁모른	-5631
▁모범	-5632
▁문자	-5633
▁미흡	-5634
▁방류	-5635
▁방점	-5636
▁법관	-5637
▁법률	-5638
▁보내	-5639
▁보아	-5640
▁보장	-5641
▁불륜	-5642
▁불만	-5643
▁불운	-5644
▁불확	-5645
▁상당	-5646
▁상식	-5647
▁성큼	-5648
▁소년	-5649
▁소속	-5650
▁손절	-5651
▁실내	-5652
▁영구	-5653
▁영면	-5654
▁원대	-5655
▁원팀	-5656
▁위조	-5657
▁위촉	-5658
▁위헌	-5659
▁자기	-5660
▁접근	-5661
▁접속	-5662
▁조롱	-5663
▁증상	-5664
▁진주	-5665
▁총기	-5666
▁출국	-5667
▁평택	-5668
▁폭스	-5669
▁하는	-5670
▁해상	-5671
▁해커	-5672
▁허민	-5673
▁헤매	-5674
▁현진	-5675
▁혈전	-5676
▁협조	-5677
▁협치	-5678
▁호조	-5679
▁호흡	-5680
▁환호	-5681
▁활동	-5682
▁회견	-5683
▁회담	-5684
▁효율	-5685
▁후회	-5686
▁훤히	-5687
▁휘성	-5688
▁휴가	-5689
▁흑석	-5690
▁희귀	-5691
▁힘들	-5692
가르트	-5693
가해자	-5694
감독관	-5695
강경화	-5696
강사의	-5697
건으로	-5698
경비원	-5699
]‘	-5700
▁R	-5701
▁며	-5702
▁앙	-5703
교통	-5704
네이	-5705
바다	-5706
바사	-5707
발표	-5708
복귀	-5709
숨진	-5710
옵티	-5711
입학	-5712
진이	-5713
차피	-5714
총격	-5715
패스	-5716
홍아	-5717
19’	-5718
▁9%	-5719
▁99	-5720
▁관중	-5721
▁누군	-5722
▁당부	-5723
▁당정	-5724
▁동물	-5725
▁동아	-5726
▁두기	-5727
▁매일	-5728
▁명단	-5729
▁명대	-5730
▁명품	-5731
▁배후	-5732
▁변수	-5733
▁변함	-5734
▁복합	-5735
▁사형	-5736
▁살았	-5737
▁설욕	-5738
▁소감	-5739
▁속옷	-5740
▁스넬	-5741
▁악재	-5742
▁앞장	-5743
▁약세	-5744
▁양성	-5745
▁여파	-5746
▁역시	-5747
▁임상	-5748
▁입금	-5749
▁장기	-5750
▁장비	-5751
▁장중	-5752
▁전역	-5753
▁정권	-5754
▁즉각	-5755
▁증여	-5756
▁직격	-5757
▁차례	-5758
▁착륙	-5759
▁취할	-5760
▁취해	-5761
▁탈선	-5762
▁파는	-5763
▁파손	-5764
▁파양	-5765
▁포기	-5766
▁허홍	-5767
간병인	-5768
계개편	-5769
공시가	-5770
과학자	-5771
국정원	-5772
권남용	-5773
그동안	-5774
그랜드	-5775
근로자	-5776
글러브	-5777
기겠다	-5778
김기덕	-5779
김명수	-5780
김봉현	-5781
김영춘	-5782
꼬우면	-5783
꿔치기	-5784
끝까지	-5785
나리오	-5786
남산의	-5787
내겠다	-5788
내돈내	-5789
냇동생	-5790
녀사냥	-5791
노원구	-5792
놓겠다	-5793
니시우	-5794
다는데	-5795
다더니	-5796
달뜨강	-5797
달라진	-5798
당국과	-5799
경민	-5800
먹고	-5801
엄마	-5802
이러	-5803
지에	-5804
하원	-5805
▁"2	-5806
▁넘겨	-5807
▁누굴	-5808
▁단지	-5809
▁달러	-5810
▁리드	-5811
▁말아	-5812
▁맞았	-5813
▁받을	-5814
▁본능	-5815
▁북동	-5816
▁분통	-5817
▁산후	-5818
▁속속	-5819
▁심장	-5820
▁악몽	-5821
▁않게	-5822
▁않다	-5823
▁어른	-5824
▁열풍	-5825
▁윤서	-5826
▁음란	-5827
▁작심	-5828
▁작업	-5829
▁적은	-5830
▁적폐	-5831
▁참모	-5832
▁참배	-5833
▁참사	-5834
▁챔피	-5835
▁처벌	-5836
▁처신	-5837
▁처형	-5838
▁청룡	-5839
▁청산	-5840
▁청원	-5841
▁초선	-5842
▁충전	-5843
▁탄자	-5844
▁특사	-5845
▁표절	-5846
▁표준	-5847
▁합동	-5848
▁홍보	-5849
▁홍콩	-5850
▁확신	-5851
▁환영	-5852
▁회사	-5853
국민이	-5854
더현대	-5855
데브온	-5856
동북아	-5857
드래곤	-5858
드리드	-5859
들어야	-5860
들에게	-5861
라인드	-5862
랐지만	-5863
래프톤	-5864
러싸고	-5865
레이션	-5866
력으로	-5867
력정지	-5868
로나주	-5869
료전지	-5870
루엔자	-5871
류무형	-5872
류인플	-5873
르빗슈	-5874
리거들	-5875
리스트	-5876
리조트	-5877
리포트	-5878
마비로	-5879
말말말	-5880
머스크	-5881
멧돼지	-5882
면돌파	-5883
명으로	-5884
모더나	-5885
무고죄	-5886
무리뉴	-5887
무수석	-5888
무차별	-5889
미군에	-5890
미혼부	-5891
박혜영	-5892
방지법	-5893
배구조	-5894
법치는	-5895
변창흠	-5896
보고서	-5897
본주택	-5898
부르크	-5899
KS	-5900
▁쏘	-5901
메일	-5902
민심	-5903
밀접	-5904
봤다	-5905
성이	-5906
아웃	-5907
옐런	-5908
오전	-5909
지대	-5910
집중	-5911
200	-5912
▁(1	-5913
▁33	-5914
▁GK	-5915
▁MO	-5916
▁같다	-5917
▁골드	-5918
▁권한	-5919
▁근육	-5920
▁근절	-5921
▁근황	-5922
▁냄새	-5923
▁눈길	-5924
▁목사	-5925
▁바로	-5926
▁반등	-5927
▁방조	-5928
▁별점	-5929
▁부문	-5930
▁설득	-5931
▁악화	-5932
▁에버	-5933
▁에어	-5934
▁운하	-5935
▁운항	-5936
▁육성	-5937
▁자축	-5938
▁절실	-5939
▁절정	-5940
▁청주	-5941
▁치매	-5942
▁치열	-5943
▁커플	-5944
▁키스	-5945
▁키즈	-5946
▁트리	-5947
▁품지	-5948
▁할일	-5949
▁함박	-5950
▁황사	-5951
단일화	-5952
라이브	-5953
본회의	-5954
부양책	-5955
부작용	-5956
부친상	-5957
분적산	-5958
비행기	-5959
비협조	-5960
빈센조	-5961
사고소	-5962
사랑해	-5963
사실상	-5964
사우나	-5965
사이드	-5966
살해죄	-5967
상증자	-5968
서울시	-5969
선거용	-5970
성장률	-5971
성차별	-5972
세계의	-5973
센터서	-5974
센터에	-5975
셧다운	-5976
소년원	-5977
소리도	-5978
소송비	-5979
소에서	-5980
손배소	-5981
손석희	-5982
수사로	-5983
수석은	-5984
수수료	-5985
수에즈	-5986
수인력	-5987
스러운	-5988
스터리	-5989
스터스	-5990
스트리	-5991
스페셜	-5992
스피싱	-5993
스햄튼	-5994
승리호	-5995
시간제	-5996
시민들	-5997
시진핑	-5998
시청률	-5999
시청자	-6000
시키는	-6001
식약처	-6002
신애와	-6003
실효성	-6004
심경섭	-6005
쌍용차	-6006
아스날	-6007
안상태	-6008
앞으로	-6009
애플카	-6010
야놀자	-6011
어지는	-6012
억원대	-6013
었더니	-6014
었지만	-6015
에게는	-6016
에너지	-6017
에이고	-6018
에이스	-6019
여대생	-6020
여배우	-6021
연예인	-6022
열병식	-6023
오스카	-6024
오유진	-6025
오타니	-6026
오히려	-6027
온라인	-6028
올해의	-6029
외관계	-6030
외국인	-6031
요일정	-6032
요즘엔	-6033
우리가	-6034
우치도	-6035
원으로	-6036
원초적	-6037
웠는데	-6038
윤여정	-6039
으려는	-6040
의원들	-6041
이라는	-6042
이명박	-6043
이방카	-6044
이번스	-6045
이범수	-6046
이슈톡	-6047
이재명	-6048
이지만	-6049
인보사	-6050
인플레	-6051
일공원	-6052
일자리	-6053
임영웅	-6054
임은정	-6055
자발적	-6056
자사고	-6057
자체장	-6058
장민호	-6059
재보선	-6060
재판소	-6061
재형상	-6062
적으로	-6063
전광훈	-6064
전기차	-6065
전막후	-6066
전참시	-6067
전포고	-6068
절차상	-6069
점검단	-6070
정경심	-6071
정도껏	-6072
정부는	-6073
정부와	-6074
정우영	-6075
정은경	-6076
정인아	-6077
정치인	-6078
제네론	-6079
제대로	-6080
제주도	-6081
조리원	-6082
조수용	-6083
조원대	-6084
종이의	-6085
주만에	-6086
주사기	-6087
주세요	-6088
주의보	-6089
주차장	-6090
주파수	-6091
죽지세	-6092
준우승	-6093
중등증	-6094
증권사	-6095
진화와	-6096
질렀다	-6097
질신문	-6098
집내기	-6099
차범위	-6100
천무효	-6101
초장기	-6102
총무청	-6103
최고기	-6104
최재형	-6105
최종전	-6106
최주환	-6107
최지만	-6108
치엘비	-6109
컴백홈	-6110
코멘트	-6111
쿨버스	-6112
탄가스	-6113
태극기	-6114
트포드	-6115
특활비	-6116
패밀리	-6117
팬데믹	-6118
포스트	-6119
폭력은	-6120
플랫폼	-6121
하고도	-6122
하세요	-6123
하이픈	-6124
하인드	-6125
하지만	-6126
학개미	-6127
한다고	-6128
한동훈	-6129
해결책	-6130
해체론	-6131
핵폭탄	-6132
했더니	-6133
했어요	-6134
험지역	-6135
협회장	-6136
혜진료	-6137
호랑이	-6138
호르몬	-6139
홈쇼핑	-6140
환경부	-6141
황하나	-6142
회장배	-6143
회장의	-6144
...’	-6145
.3%,	-6146
.4%↑	-6147
1000	-6148
2000	-6149
3000	-6150
4000	-6151
5000	-6152
8700	-6153
9000	-6154
LPGA	-6155
’···	-6156
↑...	-6157
▁"12	-6158
▁'10	-6159
▁'11	-6160
▁0-1	-6161
▁0.2	-6162
▁107	-6163
▁115	-6164
▁116	-6165
▁125	-6166
▁2-2	-6167
▁202	-6168
▁270	-6169
▁280	-6170
▁2~3	-6171
▁2·4	-6172
▁3-1	-6173
▁348	-6174
▁42%	-6175
▁558	-6176
▁580	-6177
▁587	-6178
▁5·6	-6179
▁6.4	-6180
▁621	-6181
▁7.5	-6182
▁70%	-6183
▁9.5	-6184
▁9.7	-6185
▁ASF	-6186
▁BBC	-6187
▁CNN	-6188
▁CNS	-6189
▁DNA	-6190
▁GPS	-6191
▁KCC	-6192
▁KIA	-6193
▁KTX	-6194
▁MBC	-6195
▁NCD	-6196
▁OTT	-6197
▁PBA	-6198
▁USB	-6199
▁가속화	-6200
▁간부가	-6201
▁갈림길	-6202
▁감독도	-6203
▁감스트	-6204
▁감찰위	-6205
▁강력한	-6206
▁강북구	-6207
▁강승연	-6208
▁강원래	-6209
▁강타한	-6210
▁강풍에	-6211
▁개그맨	-6212
▁개발자	-6213
▁거리로	-6214
▁거부권	-6215
▁걱정도	-6216
▁결승골	-6217
▁결정될	-6218
▁경남도	-6219
▁경북도	-6220
▁경쟁력	-6221
▁경찰에	-6222
▁계엄령	-6223
▁고려대	-6224
▁고르기	-6225
▁고민정	-6226
▁고양시	-6227
▁고양이	-6228
▁고위급	-6229
▁공개법	-6230
▁공개에	-6231
▁공군부	-6232
▁공급난	-6233
▁공시가	-6234
▁공식화	-6235
▁공약은	-6236
▁공정성	-6237
▁공포에	-6238
▁과정서	-6239
▁곽상도	-6240
▁곽진영	-6241
▁광복회	-6242
▁교도소	-6243
▁국토부	-6244
▁군부에	-6245
▁권익위	-6246
▁극심한	-6247
▁글로벌	-6248
▁기업은	-6249
▁기저질	-6250
▁김남국	-6251
▁김두관	-6252
▁김범수	-6253
▁김봉진	-6254
▁김상조	-6255
▁김새롬	-6256
▁김성태	-6257
▁김세영	-6258
▁김어준	-6259
▁김윤상	-6260
▁김종민	-6261
▁김태욱	-6262
▁김현미	-6263
▁김현숙	-6264
▁김형석	-6265
▁김혜리	-6266
▁김혜선	-6267
▁꺼냈나	-6268
▁끝까지	-6269
▁끝난다	-6270
▁끝내기	-6271
▁나선다	-6272
▁나성범	-6273
▁나아가	-6274
▁나오자	-6275
▁나온다	-6276
▁난입에	-6277
▁남아공	-6278
▁내정에	-6279
▁넘어서	-6280
▁네이버	-6281
▁네티즌	-6282
▁논란의	-6283
▁놓쳤다	-6284
▁누리길	-6285
▁뉴욕주	-6286
▁다음주	-6287
▁단계적	-6288
▁담배값	-6289
▁담양군	-6290
▁당분간	-6291
▁당원들	-6292
▁대검에	-6293
▁대구서	-6294
▁대구시	-6295
▁대도시	-6296
▁대부분	-6297
▁대역전	-6298
▁대응책	-6299
▁대체로	-6300
▁대표와	-6301
▁대학생	-6302
▁데프콘	-6303
▁동대표	-6304
▁동영상	-6305
▁되겠다	-6306
▁되풀이	-6307
▁뒤집기	-6308
▁뒤집어	-6309
▁드라마	-6310
▁드러내	-6311
▁들어온	-6312
▁들어준	-6313
▁등장에	-6314
▁등장한	-6315
▁땅투기	-6316
▁때까지	-6317
▁떠난다	-6318
▁떠올려	-6319
▁뛰어넘	-6320
▁뛰어든	-6321
▁램지어	-6322
▁러브콜	-6323
▁레이디	-6324
▁레전드	-6325
▁로스터	-6326
▁롤러블	-6327
▁리커창	-6328
▁마음에	-6329
▁만들자	-6330
▁맞춰야	-6331
▁매서운	-6332
▁맥라렌	-6333
▁맨유에	-6334
▁면제는	-6335
▁모우라	-6336
▁못받아	-6337
▁못했다	-6338
▁무관중	-6339
▁무리수	-6340
▁무주택	-6341
▁무책임	-6342
▁무혐의	-6343
▁문다혜	-6344
▁문재인	-6345
▁물러나	-6346
▁뭐길래	-6347
▁미국서	-6348
▁미끄럼	-6349
▁미나리	-6350
▁미안해	-6351
▁밀반입	-6352
▁밀어붙	-6353
▁밑돌듯	-6354
▁바이오	-6355
▁박계옥	-6356
▁박광일	-6357
▁박민우	-6358
▁박은석	-6359
▁박재훈	-6360
▁박주민	-6361
▁박중훈	-6362
▁박지윤	-6363
▁반발에	-6364
▁반성문	-6365
▁밤사이	-6366
▁방사선	-6367
▁방치한	-6368
▁배당금	-6369
▁배성재	-6370
▁배진웅	-6371
▁백신도	-6372
▁백운규	-6373
▁범죄자	-6374
▁법조계	-6375
▁베를린	-6376
▁베테랑	-6377
▁베트남	-6378
▁벨기에	-6379
▁별세에	-6380
▁보고서	-6381
▁보스턴	-6382
▁복귀에	-6383
▁복지부	-6384
▁본인은	-6385
▁부메랑	-6386
▁부모가	-6387
▁부시장	-6388
▁부장들	-6389
▁부적절	-6390
▁부총리	-6391
▁부통령	-6392
▁분석집	-6393
▁불가피	-6394
▁불공정	-6395
▁불타는	-6396
▁불화설	-6397
▁브라이	-6398
▁빅히트	-6399
▁사람들	-6400
▁사람은	-6401
▁사생활	-6402
▁사업장	-6403
▁사우디	-6404
▁사회적	-6405
▁산림청	-6406
▁살래요	-6407
▁살지도	-6408
▁삼매경	-6409
▁상속세	-6410
▁상승폭	-6411
▁상황실	-6412
▁새로운	-6413
▁새출발	-6414
▁생각은	-6415
▁서울대	-6416
▁서울점	-6417
▁서정협	-6418
▁서초구	-6419
▁서초서	-6420
▁선거에	-6421
▁선루프	-6422
▁선수들	-6423
▁성노예	-6424
▁성장률	-6425
▁세계사	-6426
▁세번째	-6427
▁세분화	-6428
▁세종대	-6429
▁셰필드	-6430
▁소녀상	-6431
▁손배소	-6432
▁손학규	-6433
▁손헌수	-6434
▁송명근	-6435
▁송새벽	-6436
▁송중기	-6437
▁수사의	-6438
▁수사팀	-6439
▁수소연	-6440
▁수술비	-6441
▁수원시	-6442
▁수준의	-6443
▁수차례	-6444
▁수험생	-6445
▁순매수	-6446
▁순심이	-6447
▁순차적	-6448
▁순천서	-6449
▁술자리	-6450
▁술접대	-6451
▁슈투트	-6452
▁스타십	-6453
▁스페인	-6454
▁시노백	-6455
▁시대로	-6456
▁시위대	-6457
▁신고가	-6458
▁신고리	-6459
▁신공항	-6460
▁신인상	-6461
▁신중히	-6462
▁신천지	-6463
▁실마리	-6464
▁실명도	-6465
▁심각성	-6466
▁심각한	-6467
▁심석희	-6468
▁심진화	-6469
▁심판론	-6470
▁쓰레기	-6471
▁아니면	-6472
▁아버지	-6473
▁아빠가	-6474
▁아쉬워	-6475
▁아스날	-6476
▁아이들	-6477
▁안간힘	-6478
▁안동시	-6479
▁안되는	-6480
▁안양시	-6481
▁안전성	-6482
▁않기로	-6483
▁않았다	-6484
▁알려진	-6485
▁앞바다	-6486
▁애리조	-6487
▁애플카	-6488
▁양치승	-6489
▁어디로	-6490
▁어려울	-6491
▁어렵다	-6492
▁어머니	-6493
▁어쩌나	-6494
▁억울한	-6495
▁업종별	-6496
▁없었을	-6497
▁엇갈린	-6498
▁엘시티	-6499
▁여운국	-6500
▁여의도	-6501
▁여전히	-6502
▁여행객	-6503
▁역전승	-6504
▁역전패	-6505
▁역주행	-6506
▁연봉은	-6507
▁연이은	-6508
▁연휴에	-6509
▁연희동	-6510
▁영국에	-6511
▁영국인	-6512
▁영업익	-6513
▁오르자	-6514
▁오인혜	-6515
▁오콘조	-6516
▁옥택연	-6517
▁온라인	-6518
▁올렸다	-6519
▁올해는	-6520
▁올해의	-6521
▁와병설	-6522
▁외국어	-6523
▁외환보	-6524
▁요르단	-6525
▁요아리	-6526
▁우려도	-6527
▁원희룡	-6528
▁유가족	-6529
▁유깻잎	-6530
▁유상철	-6531
▁유성구	-6532
▁유시민	-6533
▁유영민	-6534
▁유키스	-6535
▁윤리위	-6536
▁윤지오	-6537
▁윤희숙	-6538
▁의사당	-6539
▁의원직	-6540
▁이가흔	-6541
▁이건희	-6542
▁이동욱	-6543
▁이르면	-6544
▁이베이	-6545
▁이병진	-6546
▁이종필	-6547
▁이지영	-6548
▁이지은	-6549
▁이진석	-6550
▁이찬원	-6551
▁이태원	-6552
▁이택근	-6553
▁이해찬	-6554
▁이현주	-6555
▁이혼설	-6556
▁이효리	-6557
▁일라이	-6558
▁일정에	-6559
▁임성재	-6560
▁입주민	-6561
▁있으면	-6562
▁있을까	-6563
▁자사고	-6564
▁자책골	-6565
▁작품상	-6566
▁잘했다	-6567
▁잠수부	-6568
▁잠재력	-6569
▁잡았다	-6570
▁장동민	-6571
▁장성규	-6572
▁장애인	-6573
▁장진성	-6574
▁장학생	-6575
▁장항석	-6576
▁재검사	-6577
▁재검토	-6578
▁재보궐	-6579
▁저격한	-6580
▁적합도	-6581
▁전국민	-6582
▁전국에	-6583
▁전북서	-6584
▁전세기	-6585
▁전셋값	-6586
▁전염병	-6587
▁전월세	-6588
▁전재용	-6589
▁점찍은	-6590
▁접종한	-6591
▁정봉주	-6592
▁정부의	-6593
▁정상영	-6594
▁정용진	-6595
▁정준영	-6596
▁정지택	-6597
▁정진웅	-6598
▁정치권	-6599
▁정치질	-6600
▁제안은	-6601
▁제작사	-6602
▁제치고	-6603
▁조덕제	-6604
▁조민아	-6605
▁조재범	-6606
▁조주빈	-6607
▁조직위	-6608
▁종교계	-6609
▁주거비	-6610
▁주니어	-6611
▁주목받	-6612
▁주장한	-6613
▁중국도	-6614
▁증세로	-6615
▁지난달	-6616
▁진정한	-6617
▁진해성	-6618
▁집무실	-6619
▁집주인	-6620
▁징계안	-6621
▁짝사랑	-6622
▁쫓아내	-6623
▁찍었다	-6624
▁차장에	-6625
▁차준환	-6626
▁찾아가	-6627
▁찾았다	-6628
▁책임론	-6629
▁챌린지	-6630
▁청문회	-6631
▁청와대	-6632
▁초강수	-6633
▁초등생	-6634
▁초토화	-6635
▁총격범	-6636
▁총력전	-6637
▁총사퇴	-6638
▁총파업	-6639
▁최고의	-6640
▁최숙현	-6641
▁최신원	-6642
▁최연소	-6643
▁최재성	-6644
▁최저치	-6645
▁최종전	-6646
▁최진실	-6647
▁축구계	-6648
▁축구장	-6649
▁축구화	-6650
▁충분히	-6651
▁취소에	-6652
▁친모는	-6653
▁카메라	-6654
▁캐릭터	-6655
▁코어망	-6656
▁콘서트	-6657
▁쿠팡이	-6658
▁큐어백	-6659
▁클리퍼	-6660
▁타이거	-6661
▁탄핵이	-6662
▁터무니	-6663
▁털렸죠	-6664
▁통제해	-6665
▁투기꾼	-6666
▁트랜스	-6667
▁트위터	-6668
▁특별전	-6669
▁파운트	-6670
▁파트너	-6671
▁팰리스	-6672
▁펠로시	-6673
▁편도암	-6674
▁편안히	-6675
▁폐기물	-6676
▁포인트	-6677
▁포커스	-6678
▁폭로글	-6679
▁폭발물	-6680
▁폭설로	-6681
▁품으로	-6682
▁플렉센	-6683
▁피고인	-6684
▁피의자	-6685
▁피하지	-6686
▁필립공	-6687
▁필요한	-6688
▁하루새	-6689
▁하버드	-6690
▁학생들	-6691
▁한국계	-6692
▁한국에	-6693
▁한국이	-6694
▁한국판	-6695
▁한남동	-6696
▁한다는	-6697
▁한동훈	-6698
▁한미일	-6699
▁한화에	-6700
▁한효주	-6701
▁합격점	-6702
▁합의에	-6703
▁항공사	-6704
▁햄버거	-6705
▁향하는	-6706
▁허벅지	-6707
▁헬스장	-6708
▁현실로	-6709
▁현행범	-6710
▁호날두	-6711
▁호실적	-6712
▁홍영기	-6713
▁홍은아	-6714
▁홍진영	-6715
▁홍현희	-6716
▁화단서	-6717
▁화성시	-6718
▁화성탐	-6719
▁확산에	-6720
▁확진된	-6721
▁환전상	-6722
▁활성화	-6723
▁황희찬	-6724
▁후보자	-6725
▁힘들어	-6726
감염경로	-6727
개월만에	-6728
고령층엔	-6729
고위험군	-6730
공급대책	-6731
국가대표	-6732
극단선택	-6733
기후변화	-6734
긴급사태	-6735
남관계에	-6736
내돈내산	-6737
내일부터	-6738
네트웍스	-6739
뉴욕마감	-6740
단체연합	-6741
대한민국	-6742
명예훼손	-6743
문재인의	-6744
문화예술	-6745
민주주의	-6746
밀접접촉	-6747
바이러스	-6748
반려동물	-6749
방망이로	-6750
배구선수	-6751
백신접종	-6752
벌거벗은	-6753
복지센터	-6754
부산경찰	-6755
부정청약	-6756
불법사찰	-6757
빅데이터	-6758
산타배송	-6759
삼성증권	-6760
상황실장	-6761
생명과학	-6762
선거인단	-6763
손소독제	-6764
수도완성	-6765
스타리아	-6766
어린이집	-6767
엔터테인	-6768
여자오픈	-6769
역학조사	-6770
오늘부터	-6771
옵티머스	-6772
울산시장	-6773
유상증자	-6774
유흥시설	-6775
윤석열은	-6776
이스피싱	-6777
이웨알라	-6778
인종차별	-6779
일벌백계	-6780
전날보다	-6781
전문가들	-6782
주한미군	-6783
직무정지	-6784
집행유예	-6785
집행정지	-6786
철도사업	-6787
체육시설	-6788
촌오거리	-6789
취재파일	-6790
탄소중립	-6791
텔레그램	-6792
투기의혹	-6793
트럼프는	-6794
티모넨세	-6795
프로포폴	-6796
하루만에	-6797
한국갤럽	-6798
현장연결	-6799
"...4	-6800
..."3	-6801
...17	-6802
...19	-6803
...30	-6804
?...“	-6805
▁11.4	-6806
▁2025	-6807
▁2500	-6808
▁3100	-6809
▁5000	-6810
▁9000	-6811
▁9·11	-6812
▁LPGA	-6813
▁SLBM	-6814
▁[2·4	-6815
▁가르치는	-6816
▁가상자산	-6817
▁간부들에	-6818
▁강화해야	-6819
▁개선기간	-6820
▁개인정보	-6821
▁건설허가	-6822
▁검사체계	-6823
▁검찰국장	-6824
▁검찰중립	-6825
▁겨울폭풍	-6826
▁격상되나	-6827
▁결별설에	-6828
▁경호원에	-6829
▁계획대로	-6830
▁고등학생	-6831
▁고속도로	-6832
▁고위간부	-6833
▁공공주택	-6834
▁공동개발	-6835
▁공식석상	-6836
▁과장들도	-6837
▁구속기소	-6838
▁국내유입	-6839
▁국민연금	-6840
▁국제표준	-6841
▁굴욕적인	-6842
▁극단선택	-6843
▁기념공연	-6844
▁기후변화	-6845
▁긴급대피	-6846
▁긴급회의	-6847
▁김연경의	-6848
▁내부서도	-6849
▁내집된다	-6850
▁노바백스	-6851
▁다르빗슈	-6852
▁다저스와	-6853
▁다주택자	-6854
▁단일화에	-6855
▁달라지나	-6856
▁대리기사	-6857
▁대선주자	-6858
▁대통령과	-6859
▁대통령들	-6860
▁대통령이	-6861
▁대표이사	-6862
▁대한항공	-6863
▁돌아오기	-6864
▁돌아오다	-6865
▁동아제약	-6866
▁둘러싸고	-6867
▁룸메이트	-6868
▁리버풀전	-6869
▁리제네론	-6870
▁마구풀리	-6871
▁마드리드	-6872
▁마스터스	-6873
▁막걸리로	-6874
▁막냇동생	-6875
▁말아달라	-6876
▁머스크의	-6877
▁멕시코전	-6878
▁명예회장	-6879
▁모르겠다	-6880
▁모시겠다	-6881
▁무리뉴의	-6882
▁문제없어	-6883
▁미성년자	-6884
▁미얀마군	-6885
▁미얀마서	-6886
▁민주당이	-6887
▁민주주의	-6888
▁바꿔치기	-6889
▁부인하고	-6890
▁부장검사	-6891
▁부장판사	-6892
▁부정선거	-6893
▁부정입학	-6894
▁부탄가스	-6895
▁불법사찰	-6896
▁불확실성	-6897
▁블랙박스	-6898
▁블랙핑크	-6899
▁비서실장	-6900
▁비수도권	-6901
▁사무총장	-6902
▁사적모임	-6903
▁사진으로	-6904
▁산업장관	-6905
▁생각하고	-6906
▁생태탕집	-6907
▁서울시는	-6908
▁서울시민	-6909
▁선제검사	-6910
▁설명해야	-6911
▁섬세하게	-6912
▁성범죄자	-6913
▁성장할것	-6914
▁성착취물	-6915
▁세력까지	-6916
▁손흥민이	-6917
▁수렴하라	-6918
▁스타렉스	-6919
▁스트레스	-6920
▁스프링어	-6921
▁시나리오	-6922
▁시민단체	-6923
▁시민의견	-6924
▁시작됐다	-6925
▁시작된다	-6926
▁신혼부부	-6927
▁쏟아지는	-6928
▁아기욕조	-6929
▁아동학대	-6930
▁아시아인	-6931
▁아카데미	-6932
▁아파트값	-6933
▁알고보니	-6934
▁언급하며	-6935
▁에이프릴	-6936
▁여자배구	-6937
▁연두교서	-6938
▁연예대상	-6939
▁영신교회	-6940
▁예방접종	-6941
▁오피스텔	-6942
▁울버햄튼	-6943
▁위험할까	-6944
▁유노윤호	-6945
▁윤석열과	-6946
▁윤여정이	-6947
▁의사국시	-6948
▁의사단체	-6949
▁의식했나	-6950
▁이탈리아	-6951
▁인류무형	-6952
▁인정될까	-6953
▁인종차별	-6954
▁인천지법	-6955
▁인터뷰로	-6956
▁임대주택	-6957
▁자축하는	-6958
▁적폐청산	-6959
▁전국체전	-6960
▁전국투어	-6961
▁전두환에	-6962
▁전북본부	-6963
▁전북지역	-6964
▁정부포상	-6965
▁정부합동	-6966
▁정성호에	-6967
▁조작으로	-6968
▁존중하고	-6969
▁주간보호	-6970
▁주요일정	-6971
▁줄리아니	-6972
▁중대재해	-6973
▁중심으로	-6974
▁중앙지검	-6975
▁증오범죄	-6976
▁지역화폐	-6977
▁지적장애	-6978
▁진실공방	-6979
▁집행유예	-6980
▁징계청구	-6981
▁찾아냈다	-6982
▁최재형상	-6983
▁최후통첩	-6984
▁추가대책	-6985
▁추미애에	-6986
▁추미애의	-6987
▁취소되나	-6988
▁취업제한	-6989
▁친환경차	-6990
▁코로나로	-6991
▁코리아나	-6992
▁탄소중립	-6993
▁탄자니아	-6994
▁탄핵심판	-6995
▁태양전지	-6996
▁탬파베이	-6997
▁투자사기	-6998
▁특별방역	-6999
▁특별점검	-7000
▁특혜진료	-7001
▁평검사들	-7002
▁폭탄공격	-7003
▁프로그램	-7004
▁프로배구	-7005
▁플라스틱	-7006
▁피해사례	-7007
▁피해자에	-7008
▁한국경제	-7009
▁한목소리	-7010
▁한화건설	-7011
▁핫검색어	-7012
▁해결하러	-7013
▁해저터널	-7014
▁핵과학자	-7015
▁행정명령	-7016
▁허위자료	-7017
▁헌법소원	-7018
▁헬기사격	-7019
▁형사고소	-7020
▁흔들리는	-7021
그랜드조선	-7022
뉴스라이브	-7023
라이부르크	-7024
렉키로나주	-7025
미얀마군의	-7026
비디오머그	-7027
수에즈운하	-7028
스포티파이	-7029
앵커리포트	-7030
어드바이저	-7031
여우조연상	-7032
재난지원금	-7033
전북교육청	-7034
주시보건소	-7035
청와대통신	-7036
총기폭력은	-7037
충북교육청	-7038
크리스마스	-7039
푸스카스상	-7040
▁-1.1%	-7041
▁공공재개발	-7042
▁광주시의회	-7043
▁대통령에게	-7044
▁라이프치히	-7045
▁메이저리그	-7046
▁뮤직비디오	-7047
▁민정수석은	-7048
▁반려동물은	-7049
▁불복소송비	-7050
▁브렌트포드	-7051
▁사우스햄튼	-7052
▁산후조리원	-7053
▁샌디에이고	-7054
▁서울시의장	-7055
▁서울패밀리	-7056
▁선수협회장	-7057
▁세계선수권	-7058
▁스포티파이	-7059
▁시범경기서	-7060
▁심장마비로	-7061
▁업그레이드	-7062
▁에이치엘비	-7063
▁연방총무청	-7064
▁연습경기서	-7065
▁오리농장서	-7066
▁외환보유액	-7067
▁이스라엘군	-7068
▁이혼했어요	-7069
▁잠실세무서	-7070
▁주일대사에	-7071
▁중개수수료	-7072
▁집합금지는	-7073
▁출마금지법	-7074
▁출생증명서	-7075
▁코로나에도	-7076
▁콜로라도서	-7077
▁클리퍼스와	-7078
▁탄도미사일	-7079
▁트랜스젠더	-7080
▁한국시리즈	-7081
▁헌법재판소	-7082
▁현대차그룹	-7083
다이너마이트	-7084
류인플루엔자	-7085
엔터테인먼트	-7086
조두순방지법	-7087
...2025	-7088
▁38%...	-7089
▁수소연료전지	-7090
▁슈투트가르트	-7091
▁신규철도사업	-7092
▁실내체육시설	-7093
▁외국어영화상	-7094
▁외국인근로자	-7095
▁유럽의약품청	-7096
▁카카오페이지	-7097
아스트라제네카	-7098
▁미국배우조합상	-7099
▁서울동부구치소	-7100
▁아동학대살해죄	-7101
▁오콘조이웨알라	-7102
▁주간보호센터서	-7103
카카오엔터테인먼트	-7104
'·'	-7105
+1’	-7106
372	-7107
465	-7108
?]1	-7109
ACL	-7110
CES	-7111
TAC	-7112
YES	-7113
and	-7114
▁VO	-7115
▁겹경	-7116
▁겹친	-7117
▁곪은	-7118
▁깜짝	-7119
▁든다	-7120
▁떼도	-7121
▁람보	-7122
▁며느	-7123
▁몽니	-7124
▁몽펠	-7125
▁밟나	-7126
▁벼락	-7127
▁봤다	-7128
▁뽑아	-7129
▁샀나	-7130
▁솔루	-7131
▁솔솔	-7132
▁쉬고	-7133
▁슬롯	-7134
▁쏘아	-7135
▁앙상	-7136
▁엠넷	-7137
▁엠마	-7138
▁옐런	-7139
▁욕설	-7140
▁잊고	-7141
▁져야	-7142
▁졸전	-7143
▁좀스	-7144
▁짧게	-7145
▁찌질	-7146
▁창업	-7147
▁책은	-7148
▁탑승	-7149
▁탑재	-7150
▁퍼포	-7151
▁펑펑	-7152
▁휩쓴	-7153
▁흐름	-7154
가급등	-7155
가생이	-7156
갈미수	-7157
강력한	-7158
강추위	-7159
같은게	-7160
거제해	-7161
건우와	-7162
걸로는	-7163
고생해	-7164
고의는	-7165
공수정	-7166
공행진	-7167
과거의	-7168
과기부	-7169
교안에	-7170
궁금해	-7171
그날의	-7172
금홍아	-7173
길론은	-7174
끄러워	-7175
나가는	-7176
남우주	-7177
남편과	-7178
남해안	-7179
네이처	-7180
넥티드	-7181
놀라운	-7182
다나카	-7183
대법서	-7184
도경완	-7185
도프스	-7186
동두천	-7187
동원의	-7188
두경민	-7189
둘러선	-7190
뒤치락	-7191
드인에	-7192
떄문에	-7193
러라고	-7194
러워한	-7195
려봐야	-7196
려주면	-7197
리학회	-7198
리해제	-7199
마켓서	-7200
매니저	-7201
매즉시	-7202
맨유서	-7203
멀티골	-7204
메르켈	-7205
메리카	-7206
면죄부	-7207
모스는	-7208
묀헨과	-7209
무거운	-7210
뮌헨과	-7211
민스님	-7212
밀번호	-7213
밍아웃	-7214
바람의	-7215
바우어	-7216
바티칸	-7217
박정호	-7218
반성도	-7219
발동동	-7220
방용훈	-7221
백화점	-7222
볼프스	-7223
부업체	-7224
부인과	-7225
부조금	-7226
분노와	-7227
분데스	-7228
불투명	-7229
브걸스	-7230
브브걸	-7231
빨간불	-7232
상발사	-7233
새아침	-7234
생생톡	-7235
서관서	-7236
서해안	-7237
석유부	-7238
선임기	-7239
선호도	-7240
성필의	-7241
세라면	-7242
세종에	-7243
손예진	-7244
수출길	-7245
순아닌	-7246
술먹고	-7247
술조작	-7248
스냅챗	-7249
스바겐	-7250
스케이	-7251
스케치	-7252
스토리	-7253
시안해	-7254
신항에	-7255
실무협	-7256
악성루	-7257
악중심	-7258
안산과	-7259
안산이	-7260
안쓰럽	-7261
액주주	-7262
양난에	-7263
양지은	-7264
어러의	-7265
어버린	-7266
어차피	-7267
엄마와	-7268
엎치락	-7269
여름은	-7270
여성이	-7271
역시나	-7272
염태영	-7273
영표의	-7274
오로지	-7275
오태양	-7276
옥중편	-7277
온난화	-7278
올블랙	-7279
외제차	-7280
요한과	-7281
우주선	-7282
워주는	-7283
원활한	-7284
유전체	-7285
윤성환	-7286
윤정희	-7287
이름은	-7288
이진보	-7289
이집트	-7290
인권수	-7291
일회용	-7292
자원화	-7293
장제원	-7294
적법한	-7295
전동화	-7296
전인수	-7297
전입에	-7298
전파력	-7299
▁쏘나	-7300
르지오	-7301
식축구	-7302
신천지	-7303
실질적	-7304
아지지	-7305
어학원	-7306
원희룡	-7307
윤희숙	-7308
전파의	-7309
전화한	-7310
젊은이	-7311
점주도	-7312
정간섭	-7313
정싸움	-7314
정용래	-7315
정이삭	-7316
조금도	-7317
조부장	-7318
조정훈	-7319
조한가	-7320
지면서	-7321
지지층	-7322
진단키	-7323
진출자	-7324
진핑에	-7325
진흥법	-7326
차공간	-7327
처벌법	-7328
천군민	-7329
철희의	-7330
청소기	-7331
청학동	-7332
초집중	-7333
최저치	-7334
출산설	-7335
출연진	-7336
취소법	-7337
친형이	-7338
카타르	-7339
캘린더	-7340
코패스	-7341
키패스	-7342
킨먹고	-7343
타지에	-7344
태영호	-7345
택배사	-7346
테크니	-7347
퇴직후	-7348
투성이	-7349
특별법	-7350
특별히	-7351
판단은	-7352
퍼런스	-7353
퍼메가	-7354
펙스는	-7355
편리한	-7356
편의점	-7357
포켓서	-7358
필요시	-7359
하려다	-7360
한순간	-7361
한예리	-7362
항의서	-7363
해킹된	-7364
향대신	-7365
향하던	-7366
허취소	-7367
헤어지	-7368
형위성	-7369
화학적	-7370
황교안	-7371
효성은	-7372
.0%→	-7373
.61%	-7374
17.0	-7375
5372	-7376
5600	-7377
7.4%	-7378
9.4%	-7379
APEC	-7380
TACT	-7381
]1.5	-7382
~743	-7383
▁"72	-7384
▁'93	-7385
▁1.3	-7386
▁2⁄3	-7387
▁3,0	-7388
▁3,9	-7389
▁398	-7390
▁47%	-7391
▁488	-7392
▁889	-7393
▁CDC	-7394
▁MOM	-7395
▁and	-7396
▁“58	-7397
▁가르쳐	-7398
▁가상지	-7399
▁윗선	-7400
고소전	-7401
덕유산	-7402
려웠다	-7403
망주에	-7404
무증상	-7405
문연대	-7406
문지구	-7407
발잡이	-7408
설연휴	-7409
성일까	-7410
안요양	-7411
여운국	-7412
오리발	-7413
와이드	-7414
외주식	-7415
운하와	-7416
위조다	-7417
의장님	-7418
이미지	-7419
이적설	-7420
이전안	-7421
이중간	-7422
자책점	-7423
잡이로	-7424
전기요	-7425
전기장	-7426
좋은곳	-7427
좋은밤	-7428
증상은	-7429
지방도	-7430
초읽기	-7431
충전소	-7432
▁가지길	-7433
▁각오로	-7434
▁갈갈이	-7435
▁감싸기	-7436
▁감싸며	-7437
▁강간범	-7438
▁강릉서	-7439
▁강릉시	-7440
▁강의한	-7441
▁강해진	-7442
▁개입은	-7443
▁거론도	-7444
▁거지라	-7445
▁건강해	-7446
▁걸어야	-7447
▁걸어온	-7448
▁검색이	-7449
▁검색한	-7450
▁결단에	-7451
▁결심공	-7452
▁결의안	-7453
▁계신다	-7454
▁고강도	-7455
▁고비마	-7456
▁골드더	-7457
▁공백은	-7458
▁공항에	-7459
▁과기부	-7460
▁과도한	-7461
▁곽민수	-7462
▁광진구	-7463
▁광진에	-7464
▁교활한	-7465
▁교황도	-7466
▁구글에	-7467
▁구금한	-7468
▁국립경	-7469
▁군위도	-7470
▁권한나	-7471
▁규명위	-7472
▁근거는	-7473
▁금융주	-7474
▁금홍아	-7475
▁기간제	-7476
▁김기현	-7477
▁김동희	-7478
▁김민규	-7479
▁김상훈	-7480
▁김영종	-7481
▁김요한	-7482
▁김은혜	-7483
▁김재천	-7484
▁김재호	-7485
▁깎아준	-7486
▁깎아줄	-7487
▁끝나간	-7488
▁끝나면	-7489
▁나눌때	-7490
▁나발니	-7491
▁나발리	-7492
▁날벼락	-7493
▁남녀주	-7494
▁남부발	-7495
▁남양유	-7496
▁내세워	-7497
▁넣어두	-7498
▁논텐더	-7499
ᆞ소주	-7500
가세연	-7501
극비리	-7502
남양주	-7503
로소득	-7504
먹어도	-7505
보상제	-7506
본소득	-7507
부양안	-7508
북한이	-7509
불안한	-7510
사직서	-7511
산부가	-7512
섬세한	-7513
수부될	-7514
스코어	-7515
실보상	-7516
심판원	-7517
아버지	-7518
안일한	-7519
알라룸	-7520
우선에	-7521
유소연	-7522
장애인	-7523
조세연	-7524
춤선에	-7525
치스코	-7526
켜보기	-7527
텔레콤	-7528
현실적	-7529
회분의	-7530
ᆞ소주값	-7531
▁가세연	-7532
▁감시한	-7533
▁감안한	-7534
▁경선도	-7535
▁극비리	-7536
▁낙선에	-7537
▁남양주	-7538
▁높아져	-7539
▁뇌물장	-7540
▁늘리면	-7541
▁다녀간	-7542
▁다를까	-7543
▁다름슈	-7544
▁다음에	-7545
▁다툼에	-7546
▁단지로	-7547
▁당국에	-7548
▁당부로	-7549
▁대기자	-7550
▁대기질	-7551
▁대립각	-7552
▁대북전	-7553
▁대장정	-7554
▁대처할	-7555
▁댓글만	-7556
▁도경완	-7557
▁독립성	-7558
▁돈봉투	-7559
▁돌봐주	-7560
▁동기들	-7561
▁동선도	-7562
▁돼가는	-7563
▁되찾은	-7564
▁두려움	-7565
▁드림캐	-7566
▁들끓는	-7567
▁등교수	-7568
▁디트로	-7569
▁딱이야	-7570
▁떠나는	-7571
▁떠나라	-7572
▁떨어뜨	-7573
▁띄웠다	-7574
▁레드냅	-7575
▁로이드	-7576
▁리더십	-7577
▁마디는	-7578
▁마을법	-7579
▁막아라	-7580
▁만날까	-7581
▁망칠까	-7582
▁맞서나	-7583
▁맞았던	-7584
▁매춘부	-7585
▁맹비판	-7586
▁맹추위	-7587
▁머물러	-7588
▁머물며	-7589
▁멀티골	-7590
▁멈춰야	-7591
▁메르켈	-7592
▁멧돼지	-7593
▁면접자	-7594
▁면죄부	-7595
▁모른다	-7596
▁모른채	-7597
▁모범국	-7598
▁몰수보	-7599
▁갤럽	-7600
▁훌훌	-7601
겨내야	-7602
고령자	-7603
고위층	-7604
공포상	-7605
교계와	-7606
교서열	-7607
구글이	-7608
구속송	-7609
나고파	-7610
년만의	-7611
뉴딜이	-7612
달대행	-7613
대결도	-7614
도르트	-7615
러브샷	-7616
마비노	-7617
말레나	-7618
무기조	-7619
미들이	-7620
반기중	-7621
베르크	-7622
아무도	-7623
안리거	-7624
언급한	-7625
여교사	-7626
예리가	-7627
유라는	-7628
육계획	-7629
장고서	-7630
진군에	-7631
포레나	-7632
형뉴딜	-7633
▁그러나	-7634
▁꺼내나	-7635
▁누르고	-7636
▁동두천	-7637
▁라리가	-7638
▁만났다	-7639
▁몰수패	-7640
▁몰수한	-7641
▁무증상	-7642
▁묵묵부	-7643
▁묵묵히	-7644
▁묶기도	-7645
▁묶었다	-7646
▁물량은	-7647
▁뮌헨과	-7648
▁미래차	-7649
▁미확인	-7650
▁믿어라	-7651
▁밀양파	-7652
▁바뀌고	-7653
▁바뀌나	-7654
▁바우어	-7655
▁박상하	-7656
▁박성재	-7657
▁박정호	-7658
▁박진규	-7659
▁박진우	-7660
▁박혜진	-7661
▁반환은	-7662
▁발동동	-7663
▁방침에	-7664
▁배당에	-7665
▁배치로	-7666
▁백화점	-7667
▁버스킹	-7668
▁번리와	-7669
▁벌어진	-7670
▁법률가	-7671
▁벗으라	-7672
▁벼락거	-7673
▁별채만	-7674
▁병원서	-7675
▁보낸다	-7676
▁보르도	-7677
▁보여준	-7678
▁복합제	-7679
▁본보기	-7680
▁본부장	-7681
▁부결에	-7682
▁부부가	-7683
▁부재에	-7684
▁부진에	-7685
▁북동부	-7686
▁분위기	-7687
▁분통터	-7688
▁불리한	-7689
▁불신이	-7690
▁불출마	-7691
▁불필요	-7692
▁브라운	-7693
▁비교되	-7694
▁비보잉	-7695
▁비중도	-7696
▁빙판길	-7697
▁뽑아야	-7698
▁사기꾼	-7699
CDC	-7700
KTX	-7701
NAL	-7702
→16	-7703
▁ep	-7704
▁걷고	-7705
▁괴한	-7706
▁납부	-7707
▁납품	-7708
▁뜨거	-7709
▁띄우	-7710
▁띄운	-7711
▁래딧	-7712
▁맑고	-7713
▁맑음	-7714
▁벨리	-7715
▁붙여	-7716
▁빚어	-7717
▁뿌린	-7718
▁삶의	-7719
▁쓴게	-7720
▁씨네	-7721
▁얘기	-7722
▁얘들	-7723
▁얻나	-7724
▁웨딩	-7725
▁즐겨	-7726
▁즐길	-7727
▁춘제	-7728
▁콘텐	-7729
▁탐색	-7730
▁탐지	-7731
▁탓에	-7732
▁펜실	-7733
▁헌신	-7734
▁헤드	-7735
▁헬기	-7736
▁흑자	-7737
▁히메	-7738
안간힘	-7739
▁'90	-7740
▁-20	-7741
▁336	-7742
▁436	-7743
▁7.2	-7744
▁MSD	-7745
▁깨졌다	-7746
▁깨지고	-7747
▁닫겠다	-7748
▁닫았다	-7749
▁던지고	-7750
▁덜었다	-7751
▁뜨거울	-7752
▁띄우기	-7753
▁맑지만	-7754
▁맡기는	-7755
▁밑으로	-7756
▁벨리칙	-7757
▁빚어낸	-7758
▁사랑법	-7759
▁사무실	-7760
▁산책로	-7761
▁살았단	-7762
▁살았지	-7763
▁살펴본	-7764
▁상식이	-7765
▁색깔론	-7766
▁생산공	-7767
▁선구매	-7768
▁선생이	-7769
▁설득에	-7770
▁설연휴	-7771
▁성전환	-7772
▁소개해	-7773
▁소명할	-7774
▁소박한	-7775
▁소속서	-7776
▁소환수	-7777
▁손봐야	-7778
▁손예진	-7779
▁손잡은	-7780
▁수능날	-7781
▁수십억	-7782
▁수위에	-7783
▁숙이고	-7784
▁순위조	-7785
▁숨지기	-7786
▁스냅챗	-7787
▁스웨덴	-7788
▁스쿼드	-7789
▁슬롯머	-7790
▁승기를	-7791
▁승려가	-7792
▁승자는	-7793
▁시국에	-7794
▁시설서	-7795
▁시청자	-7796
▁식약처	-7797
▁신경전	-7798
▁신동수	-7799
▁Th	-7800
소비자	-7801
온택트	-7802
CCTV	-7803
▁The	-7804
▁사진에	-7805
▁상처만	-7806
▁선처도	-7807
▁소집했	-7808
▁시간외	-7809
▁신라젠	-7810
▁실신할	-7811
▁실전서	-7812
▁실체는	-7813
▁실험실	-7814
▁쌍둥이	-7815
▁쌍용차	-7816
▁쓴소리	-7817
▁아낀다	-7818
▁아무도	-7819
▁아웅산	-7820
▁아프지	-7821
▁악어들	-7822
▁악플에	-7823
▁안산시	-7824
▁안준영	-7825
▁앞당겨	-7826
▁앞세워	-7827
▁앞장설	-7828
▁앞질러	-7829
▁야기해	-7830
▁양산시	-7831
▁어디갔	-7832
▁어디에	-7833
▁엄마면	-7834
▁엄중히	-7835
▁엄청난	-7836
▁없애는	-7837
▁엇갈려	-7838
▁에너지	-7839
▁에버기	-7840
▁에어팟	-7841
▁여고생	-7842
▁여당에	-7843
▁역할로	-7844
▁역효과	-7845
▁연등회	-7846
▁연소득	-7847
▁연쇄망	-7848
▁연습실	-7849
▁연예계	-7850
▁열차에	-7851
▁염원은	-7852
▁영구설	-7853
▁영면에	-7854
▁예산안	-7855
▁예산에	-7856
▁오라더	-7857
▁오르다	-7858
▁오리발	-7859
▁오프닝	-7860
▁오픈채	-7861
▁오히려	-7862
▁옥중편	-7863
▁온택트	-7864
▁완벽투	-7865
▁외제차	-7866
▁요인과	-7867
▁욕설만	-7868
▁우타자	-7869
▁움직임	-7870
▁원샷원	-7871
▁월급은	-7872
▁웨딩화	-7873
▁위독설	-7874
▁위력이	-7875
▁위민스	-7876
▁위원장	-7877
▁위장해	-7878
▁유리와	-7879
▁유포자	-7880
▁윤미향	-7881
▁윤성환	-7882
▁윤정희	-7883
▁음바페	-7884
▁음악중	-7885
▁의대생	-7886
▁의도는	-7887
▁의령군	-7888
▁의무화	-7889
▁의회난	-7890
▁이간시	-7891
▁이뤄질	-7892
▁이름도	-7893
▁이름은	-7894
▁이메일	-7895
▁이명박	-7896
▁이민걸	-7897
▁이별수	-7898
▁이언주	-7899
▁궤적	-7900
▁뒷받	-7901
교활동	-7902
급휴가	-7903
디카페	-7904
비평가	-7905
일후보	-7906
자협회	-7907
장협회	-7908
청파일	-7909
치히터	-7910
트로피	-7911
트트랙	-7912
파일러	-7913
학대방	-7914
해결사	-7915
현재는	-7916
호텔서	-7917
휴가비	-7918
KIST	-7919
▁313	-7920
▁623	-7921
▁간다고	-7922
▁개막전	-7923
▁계좌로	-7924
▁관리들	-7925
▁관리인	-7926
▁관리할	-7927
▁광화문	-7928
▁구급대	-7929
▁구상은	-7930
▁군정운	-7931
▁극복하	-7932
▁기자와	-7933
▁도로명	-7934
▁뒷받침	-7935
▁레알은	-7936
▁레알행	-7937
▁롯데에	-7938
▁막판에	-7939
▁모델하	-7940
▁목숨도	-7941
▁무엇을	-7942
▁무역수	-7943
▁무역은	-7944
▁받아들	-7945
▁받아쳐	-7946
▁보호관	-7947
▁비서실	-7948
▁비평가	-7949
▁영호남	-7950
▁왕이에	-7951
▁원클럽	-7952
▁이긴다	-7953
▁이영표	-7954
▁이정후	-7955
▁이주열	-7956
▁이철순	-7957
▁이철희	-7958
▁이태양	-7959
▁익수자	-7960
▁인과성	-7961
▁인사도	-7962
▁일삼던	-7963
▁일삼은	-7964
▁일어나	-7965
▁일어난	-7966
▁일으켜	-7967
▁일으킨	-7968
▁일제정	-7969
▁일회용	-7970
▁잃었을	-7971
▁있었나	-7972
▁자기집	-7973
▁자르고	-7974
▁자신감	-7975
▁자신을	-7976
▁작성에	-7977
▁작성자	-7978
▁잔류냐	-7979
▁잘못짚	-7980
▁장려금	-7981
▁장본인	-7982
▁장성민	-7983
▁재검표	-7984
▁재돌파	-7985
▁재선도	-7986
▁재시도	-7987
▁저질러	-7988
▁적용할	-7989
▁전광판	-7990
▁전광훈	-7991
▁전락할	-7992
▁전민수	-7993
▁전반기	-7994
▁전복된	-7995
▁전사의	-7996
▁전역서	-7997
▁전주비	-7998
▁전주와	-7999
▁촬영	-8000
곳에선	-8001
구전략	-8002
김제는	-8003
디지털	-8004
밑이지	-8005
보조원	-8006
세월호	-8007
어준다	-8008
에어팟	-8009
여론은	-8010
연말연	-8011
위해제	-8012
이란에	-8013
이사후	-8014
이상열	-8015
이틀만	-8016
일본통	-8017
자로서	-8018
자영업	-8019
적절한	-8020
전국에	-8021
접촉자	-8022
조리장	-8023
주환원	-8024
주환의	-8025
착차량	-8026
촬영에	-8027
택연금	-8028
황의조	-8029
▁거주자	-8030
▁건조한	-8031
▁것이냐	-8032
▁나이지	-8033
▁누굴까	-8034
▁대출한	-8035
▁삭제는	-8036
▁숨지고	-8037
▁승용차	-8038
▁외출한	-8039
▁자의적	-8040
▁전체의	-8041
▁정당과	-8042
▁정말로	-8043
▁정반대	-8044
▁정신이	-8045
▁정이삭	-8046
▁정화비	-8047
▁조립공	-8048
▁조성원	-8049
▁조용호	-8050
▁조종받	-8051
▁좋아요	-8052
▁좌초로	-8053
▁주거기	-8054
▁주거지	-8055
▁주문해	-8056
▁주변은	-8057
▁주소지	-8058
▁주지사	-8059
▁줄줄이	-8060
▁쥐어준	-8061
▁지겹다	-8062
▁지구촌	-8063
▁지나도	-8064
▁지메일	-8065
▁지목된	-8066
▁지연수	-8067
▁지자체	-8068
▁지키려	-8069
▁직격탄	-8070
▁직전과	-8071
▁진입에	-8072
▁질문에	-8073
▁집안일	-8074
▁짧았다	-8075
▁찌르고	-8076
▁찍혔다	-8077
▁찢어진	-8078
▁차트서	-8079
▁착륙과	-8080
▁착취물	-8081
▁찬성표	-8082
▁참담해	-8083
▁참패에	-8084
▁창업가	-8085
▁창업자	-8086
▁챔피언	-8087
▁천안시	-8088
▁천안함	-8089
▁청소부	-8090
▁청원은	-8091
▁청주방	-8092
▁청학동	-8093
▁첼시와	-8094
▁초읽기	-8095
▁총출동	-8096
▁최선의	-8097
▁축하에	-8098
▁출근날	-8099
가정불	-8100
가정사	-8101
감찰업	-8102
곱버스	-8103
공동체	-8104
그렇게	-8105
기도원	-8106
내버스	-8107
논란에	-8108
단보도	-8109
덕도파	-8110
드디어	-8111
라미식	-8112
르기니	-8113
많아진	-8114
몰리나	-8115
부분은	-8116
부상자	-8117
블링컨	-8118
성범이	-8119
수들은	-8120
수일째	-8121
시트로	-8122
신청사	-8123
아진다	-8124
어런스	-8125
읍시다	-8126
이진혁	-8127
중교통	-8128
참기지	-8129
팬들께	-8130
폭로자	-8131
▁광저우	-8132
▁근로자	-8133
▁날아가	-8134
▁낮아진	-8135
▁단양군	-8136
▁도마에	-8137
▁모기지	-8138
▁불기소	-8139
▁산발적	-8140
▁안민석	-8141
▁이루다	-8142
▁자발적	-8143
▁저렇게	-8144
▁총비서	-8145
▁치솟는	-8146
▁치솟아	-8147
▁친문계	-8148
▁친엄마	-8149
▁침입한	-8150
▁캘린더	-8151
▁캠페인	-8152
▁커리어	-8153
▁콘텐츠	-8154
▁키워드	-8155
▁타자가	-8156
▁탈압박	-8157
▁탈환이	-8158
▁탐색전	-8159
▁탐지견	-8160
▁탑재한	-8161
▁탱크에	-8162
▁테크토	-8163
▁통번역	-8164
▁투박한	-8165
▁트리오	-8166
▁트윗서	-8167
▁특대용	-8168
▁특수단	-8169
▁팀닥터	-8170
▁팬데믹	-8171
▁팬들께	-8172
▁퍼포먼	-8173
▁페이스	-8174
▁펜스에	-8175
▁평가액	-8176
▁평생을	-8177
▁평생학	-8178
▁평택항	-8179
▁평화로	-8180
▁포레나	-8181
▁포장서	-8182
▁포트너	-8183
▁표현에	-8184
▁풀리나	-8185
▁프리즘	-8186
▁피고발	-8187
▁피로감	-8188
▁피말린	-8189
▁하다가	-8190
▁하반기	-8191
▁하사는	-8192
▁하시라	-8193
▁하지마	-8194
▁한강서	-8195
▁한예리	-8196
▁한정애	-8197
▁함박눈	-8198
▁함박웃	-8199
(12	-8200
129	-8201
162	-8202
CIA	-8203
ECO	-8204
MIA	-8205
→12	-8206
▁곤혹	-8207
▁까뇨	-8208
▁끊은	-8209
▁끊임	-8210
▁끼어	-8211
▁뇌사	-8212
▁니즈	-8213
▁니콜	-8214
▁맥락	-8215
▁맹활	-8216
▁몸값	-8217
▁묘소	-8218
▁묘한	-8219
▁밖의	-8220
▁빙판	-8221
▁삼자	-8222
▁숙여	-8223
▁엔지	-8224
▁염려	-8225
▁염색	-8226
▁즉석	-8227
▁즉시	-8228
▁챔프	-8229
▁캐리	-8230
▁캐스	-8231
▁팀내	-8232
▁펠레	-8233
▁펠릭	-8234
▁홀트	-8235
레알은	-8236
풍속도	-8237
.03%	-8238
1629	-8239
ECOR	-8240
′′..	-8241
▁39%	-8242
▁46%	-8243
▁4·3	-8244
▁56%	-8245
▁612	-8246
▁86%	-8247
▁9-0	-8248
▁곤혹스	-8249
▁까뇨뚜	-8250
▁끊었다	-8251
▁끼어든	-8252
▁니즈너	-8253
▁니콜라	-8254
▁맹활약	-8255
▁몫으로	-8256
▁믿겠다	-8257
▁밖서도	-8258
▁삼겠다	-8259
▁삼자범	-8260
▁염색약	-8261
▁챔프전	-8262
▁캐스팅	-8263
▁펠릭스	-8264
▁합병설	-8265
▁합수단	-8266
▁해상서	-8267
▁해운주	-8268
▁해임갈	-8269
▁핵협상	-8270
▁했어요	-8271
▁행동나	-8272
▁행동에	-8273
▁행보에	-8274
▁행복한	-8275
▁허문회	-8276
▁허은아	-8277
▁헌정사	-8278
▁헤드폰	-8279
▁현대가	-8280
▁현지에	-8281
▁현행화	-8282
▁혈전증	-8283
▁호랑이	-8284
▁호텔방	-8285
▁화환에	-8286
▁환불에	-8287
▁효율성	-8288
▁후반전	-8289
▁후속은	-8290
▁휘둘러	-8291
▁휴대용	-8292
▁히메네	-8293
▁힘들다	-8294
가생이닷	-8295
가정불화	-8296
감사원장	-8297
감사하다	-8298
감찰업무	-8299
▁졸피	-8300
▁클라	-8301
기꺼이	-8302
▁게시물	-8303
▁당선된	-8304
▁데뷔전	-8305
▁만나러	-8306
▁먼저다	-8307
▁발전소	-8308
▁법정에	-8309
▁벗어나	-8310
▁벗어라	-8311
▁부당해	-8312
▁불발에	-8313
▁불안감	-8314
▁사우나	-8315
▁상금왕	-8316
▁상원지	-8317
▁세상과	-8318
▁소통하	-8319
▁수비면	-8320
▁수술실	-8321
▁신뢰가	-8322
▁아빠는	-8323
▁언어의	-8324
▁연구성	-8325
▁예비입	-8326
▁외교는	-8327
▁외교부	-8328
▁유럽무	-8329
▁의견분	-8330
▁의견제	-8331
▁이전안	-8332
▁임명에	-8333
▁전남소	-8334
▁전남편	-8335
▁조직력	-8336
▁졸피뎀	-8337
▁주도한	-8338
▁청년의	-8339
▁최후진	-8340
▁추천한	-8341
▁통화해	-8342
▁폐업점	-8343
▁해킹설	-8344
▁혁신은	-8345
▁협박한	-8346
▁화제성	-8347
▁활용법	-8348
▁희망을	-8349
▁희생된	-8350
개인정보	-8351
거래소에	-8352
거래일만	-8353
거부하자	-8354
거제해상	-8355
건물번호	-8356
겠습니다	-8357
격리해제	-8358
결혼까지	-8359
경북인의	-8360
경원이냐	-8361
경찰청장	-8362
고공행진	-8363
고교서열	-8364
고등학생	-8365
고생해따	-8366
고용부가	-8367
고용상황	-8368
골든타임	-8369
골잡이로	-8370
공동경영	-8371
공동주택	-8372
공유재산	-8373
공화당서	-8374
공화당원	-8375
교생까지	-8376
구속영장	-8377
국민연금	-8378
군이었다	-8379
권남용은	-8380
권력기관	-8381
그걸로는	-8382
그곳에선	-8383
금리인상	-8384
금융투자	-8385
기술조작	-8386
길고양이	-8387
길어지는	-8388
김영필의	-8389
꾸벅꾸벅	-8390
내년에도	-8391
내버스서	-8392
내정간섭	-8393
넥티드카	-8394
노동자와	-8395
노예같은	-8396
니시우스	-8397
다려봐야	-8398
단일화의	-8399
고양서	-8400
김하성	-8401
녀인가	-8402
눠줬다	-8403
대항공	-8404
데없이	-8405
마인가	-8406
명피해	-8407
무효형	-8408
민피해	-8409
소처럼	-8410
신현수	-8411
애플과	-8412
앤하이	-8413
영화보	-8414
이너서	-8415
이너스	-8416
조국라	-8417
조명발	-8418
조합상	-8419
주민들	-8420
지임대	-8421
지지도	-8422
체육관	-8423
측근이	-8424
탄핵될	-8425
탕치고	-8426
한인들	-8427
할지도	-8428
향인사	-8429
.1%·	-8430
.1%”	-8431
▁"45	-8432
▁283	-8433
▁건물주	-8434
▁경북서	-8435
▁고양서	-8436
▁광고물	-8437
▁광양시	-8438
▁교사들	-8439
▁급락에	-8440
▁기꺼이	-8441
▁김해파	-8442
▁나오게	-8443
▁나오면	-8444
▁노인들	-8445
▁대확산	-8446
▁마치고	-8447
▁맞서야	-8448
▁명의에	-8449
▁물갈이	-8450
▁방지법	-8451
▁부실장	-8452
▁분적산	-8453
▁연관성	-8454
▁최측근	-8455
▁파월의	-8456
고용지원	-8457
구속송치	-8458
국민통합	-8459
김하성만	-8460
달장애인	-8461
담스러운	-8462
대남관계	-8463
대선후보	-8464
대신증권	-8465
대외관계	-8466
대질신문	-8467
대항공사	-8468
도르트문	-8469
돌려주면	-8470
동료들이	-8471
동성결혼	-8472
동학개미	-8473
드림투어	-8474
드플러스	-8475
들에게도	-8476
라인드서	-8477
런던으로	-8478
레길론은	-8479
레이션의	-8480
려놓겠다	-8481
리안리거	-8482
리포니아	-8483
린뉴딜이	-8484
마녀사냥	-8485
마비노기	-8486
막전막후	-8487
멀티골로	-8488
목표주가	-8489
무기력한	-8490
문화유산	-8491
미국우선	-8492
미상발사	-8493
반문연대	-8494
배달대행	-8495
백신없어	-8496
백신여권	-8497
법관대표	-8498
법관사찰	-8499
▁꼬리	-8500
▁낙선	-8501
▁루고	-8502
▁루이	-8503
▁멈출	-8504
▁볼까	-8505
▁볼엔	-8506
▁빌딩	-8507
▁빌런	-8508
▁챙겨	-8509
강원은	-8510
고검장	-8511
공격적	-8512
공정함	-8513
국자들	-8514
기관은	-8515
끼려고	-8516
나기는	-8517
도건설	-8518
도쿄는	-8519
독립성	-8520
라디오	-8521
래산업	-8522
력기관	-8523
론내기	-8524
리돼야	-8525
멜라의	-8526
반건설	-8527
북공정	-8528
사라진	-8529
사망한	-8530
산업부	-8531
상도례	-8532
성사진	-8533
솜리에	-8534
수도자	-8535
완돼야	-8536
우려는	-8537
유나이	-8538
의료진	-8539
이동훈	-8540
질수도	-8541
쩌려고	-8542
포상금	-8543
한도전	-8544
▁그리고	-8545
▁내리고	-8546
▁노동자	-8547
▁늘리고	-8548
▁동남아	-8549
▁루이뷔	-8550
▁명분은	-8551
▁뭐했나	-8552
▁변수도	-8553
▁보상금	-8554
▁비리에	-8555
▁알리고	-8556
▁양상도	-8557
▁챙겨라	-8558
▁챙기는	-8559
▁첼시가	-8560
▁총상금	-8561
강원랜드	-8562
강원으로	-8563
결론내기	-8564
공정하고	-8565
도쿄시장	-8566
무한도전	-8567
미래산업	-8568
법적조치	-8569
법정시한	-8570
베이니아	-8571
별의순간	-8572
병참기지	-8573
보궐선거	-8574
보도해야	-8575
보육계획	-8576
복지시설	-8577
부교도소	-8578
부인과서	-8579
부정청탁	-8580
불법촬영	-8581
브이에이	-8582
블라인드	-8583
블랙박스	-8584
비밀번호	-8585
비상사태	-8586
비어런스	-8587
비현실적	-8588
비협조로	-8589
사망조사	-8590
사면론에	-8591
사실무근	-8592
사회장의	-8593
산업인력	-8594
살라미식	-8595
삼성전기	-8596
상금으로	-8597
상원으로	-8598
새벽배송	-8599
1%↓	-8600
157	-8601
4·7	-8602
9%↓	-8603
IST	-8604
ine	-8605
~70	-8606
~73	-8607
▁겸허	-8608
▁깊게	-8609
▁낙관	-8610
조경보	-8611
157,	-8612
2015	-8613
50~7	-8614
Line	-8615
~734	-8616
▁'40	-8617
▁340	-8618
▁548	-8619
▁95%	-8620
▁NYT	-8621
▁“40	-8622
▁겸허히	-8623
▁낙관론	-8624
▁댓글로	-8625
▁신사옥	-8626
▁위험도	-8627
▁위험한	-8628
▁유치원	-8629
▁의미는	-8630
▁인도네	-8631
▁인도서	-8632
▁임대료	-8633
▁작품들	-8634
▁작품이	-8635
▁전파로	-8636
▁절차와	-8637
▁제안이	-8638
▁조기등	-8639
▁조기확	-8640
▁중대본	-8641
▁지켜본	-8642
▁집중매	-8643
▁차관도	-8644
▁최강자	-8645
▁포함된	-8646
▁학원도	-8647
▁했다니	-8648
▁회의서	-8649
▁흔들지	-8650
갤럭시버	-8651
서신애와	-8652
서울만의	-8653
서울사옥	-8654
석유부자	-8655
선수주에	-8656
성대결도	-8657
성범이형	-8658
성범죄자	-8659
세쌍둥이	-8660
세액지원	-8661
소식에도	-8662
소에서만	-8663
소충전소	-8664
소통공간	-8665
손부부의	-8666
손실보상	-8667
수능변수	-8668
수부될라	-8669
숙박대란	-8670
순아닌가	-8671
스쿨버스	-8672
스터전서	-8673
스터트롯	-8674
스트리밍	-8675
스트리트	-8676
스펙스는	-8677
스프링어	-8678
슬라이드	-8679
승리하려	-8680
시마처럼	-8681
시청자께	-8682
시트로앵	-8683
신규확진	-8684
신상공개	-8685
실무협의	-8686
실업지표	-8687
심경섭도	-8688
아니었다	-8689
안노동자	-8690
안쓰럽게	-8691
안일하게	-8692
애플카는	-8693
양대병원	-8694
어내겠다	-8695
어쩌려고	-8696
어플레이	-8697
었는데도	-8698
에어로빅	-8699
극한파	-8700
제한구	-8701
중국귀	-8702
중국판	-8703
중국해	-8704
집단적	-8705
행위한	-8706
행정연	-8707
▁-11	-8708
▁-13	-8709
▁-15	-8710
▁184	-8711
▁741	-8712
▁감사방	-8713
▁감사패	-8714
▁공방의	-8715
▁공포의	-8716
▁구조자	-8717
▁구형에	-8718
▁남자는	-8719
▁늘어날	-8720
▁대신해	-8721
▁대화한	-8722
▁라이베	-8723
▁라이온	-8724
▁메시만	-8725
▁밝혀라	-8726
▁밝혀야	-8727
▁살아남	-8728
▁살처분	-8729
▁상태로	-8730
▁선제골	-8731
▁속도감	-8732
▁수입도	-8733
▁수입차	-8734
▁수입화	-8735
▁스토어	-8736
▁압류는	-8737
▁어제에	-8738
▁업무시	-8739
▁영상물	-8740
▁올라온	-8741
▁우주로	-8742
▁운동화	-8743
▁장차관	-8744
▁적정성	-8745
▁전년비	-8746
▁조기게	-8747
▁증오를	-8748
▁첫공연	-8749
교통경찰	-8750
북극한파	-8751
에이프릴	-8752
역대학원	-8753
연말기획	-8754
연수원에	-8755
영업금지	-8756
영업제한	-8757
영주차장	-8758
오전시황	-8759
오태양은	-8760
옥중편지	-8761
와이번스	-8762
완벽했다	-8763
요양병원	-8764
우리은행	-8765
원전수사	-8766
원조친문	-8767
원천무효	-8768
위험지역	-8769
윤리센터	-8770
윤리의식	-8771
은퇴위기	-8772
음주금지	-8773
음주운전	-8774
의사국시	-8775
의식회복	-8776
의원들께	-8777
이너서클	-8778
이노베이	-8779
이동훈의	-8780
이사수요	-8781
이상반응	-8782
이슈체크	-8783
이슈큐브	-8784
이스포츠	-8785
이영표의	-8786
이적행위	-8787
이중간첩	-8788
이터통신	-8789
인권종합	-8790
일상감염	-8791
일상으로	-8792
입국자들	-8793
자가격리	-8794
자격자가	-8795
자격정지	-8796
자금으로	-8797
자유연대	-8798
장민호에	-8799
▁꼬일	-8800
▁뒷광	-8801
▁숙박	-8802
간목표	-8803
겨난다	-8804
공화국	-8805
광주는	-8806
광주위	-8807
국가가	-8808
국수본	-8809
국회도	-8810
국회예	-8811
궁대회	-8812
금요일	-8813
너무나	-8814
대구도	-8815
대구서	-8816
대사관	-8817
도공단	-8818
따라가	-8819
떠난다	-8820
료인력	-8821
목표가	-8822
목표는	-8823
번이면	-8824
병상의	-8825
서예지	-8826
선대선	-8827
안사면	-8828
우병우	-8829
이병규	-8830
이어로	-8831
이어투	-8832
이어트	-8833
이어폰	-8834
장사업	-8835
정사상	-8836
조병규	-8837
중운동	-8838
타르전	-8839
타이어	-8840
투목표	-8841
프랑스	-8842
해보험	-8843
▁강세에	-8844
▁금요일	-8845
▁김동찬	-8846
▁꼬일라	-8847
▁늘린다	-8848
▁돌린다	-8849
▁뒷광고	-8850
▁따라가	-8851
▁맞으면	-8852
▁먹거리	-8853
▁무면허	-8854
▁방이면	-8855
▁선교회	-8856
▁예비경	-8857
▁올라가	-8858
▁자랑스	-8859
▁죽으면	-8860
▁줄였다	-8861
▁합수본	-8862
▁화합의	-8863
광주위주	-8864
국회예정	-8865
떠난다면	-8866
민중운동	-8867
부산시설	-8868
손해보험	-8869
오병상의	-8870
와이어로	-8871
의사면허	-8872
작심비판	-8873
장외주식	-8874
적극행정	-8875
적이지만	-8876
전국민이	-8877
전기장판	-8878
전노래방	-8879
전문관료	-8880
전세대책	-8881
전포인트	-8882
절차따라	-8883
젊은이들	-8884
정계개편	-8885
정보인증	-8886
정은경이	-8887
정치인중	-8888
제한토론	-8889
조작하는	-8890
종교단체	-8891
주공화국	-8892
주파수값	-8893
준우승은	-8894
중국귀화	-8895
중기부에	-8896
중앙지검	-8897
증권사들	-8898
지구온난	-8899
,11	-8900
117	-8901
360	-8902
▁外人	-8903
▁꿈꾸	-8904
▁낮춰	-8905
▁느꼈	-8906
▁뚫고	-8907
▁라트	-8908
▁러시	-8909
▁봉기	-8910
▁쇼크	-8911
▁싶어	-8912
▁싶은	-8913
▁쓰거	-8914
▁쓰레	-8915
▁엘렌	-8916
▁엘이	-8917
▁옥중	-8918
▁와인	-8919
▁잇따	-8920
▁찬스	-8921
▁캠핑	-8922
▁콜센	-8923
▁팔꿈	-8924
▁팔촌	-8925
▁흥행	-8926
남문제	-8927
케미칼	-8928
혐오대	-8929
360]	-8930
▁8.8	-8931
▁9.8	-8932
▁KFA	-8933
▁PGA	-8934
▁“11	-8935
▁거주지	-8936
▁김민재	-8937
▁꺾이나	-8938
▁꿈꾸나	-8939
▁노력할	-8940
▁느꼈나	-8941
▁뚫었다	-8942
▁라트비	-8943
▁싶지만	-8944
▁쓰거든	-8945
▁쓰세요	-8946
▁엘이티	-8947
▁잇따른	-8948
▁캠시스	-8949
▁캠핑차	-8950
▁콜센타	-8951
▁팔꿈치	-8952
▁했는데	-8953
대남문제	-8954
수사거리	-8955
지방법원	-8956
지방선거	-8957
지배구조	-8958
지역화폐	-8959
지원사업	-8960
지자체장	-8961
지지층이	-8962
지켜보기	-8963
진주소식	-8964
진흥공사	-8965
집단면역	-8966
집단보다	-8967
철도공단	-8968
초환까지	-8969
총수라서	-8970
촬영현장	-8971
최대주주	-8972
커밍아웃	-8973
크드인에	-8974
크래프톤	-8975
크리스탈	-8976
타강사의	-8977
탄핵하자	-8978
택배기사	-8979
터디카페	-8980
턴증명서	-8981
테슬라를	-8982
통일공원	-8983
퇴양난에	-8984
투자의견	-8985
투표하면	-8986
특보까지	-8987
특혜면제	-8988
티모넨스	-8989
파우치도	-8990
팰리스전	-8991
편향인사	-8992
포르투갈	-8993
폭스바겐	-8994
프로그램	-8995
핀치히터	-8996
필수인력	-8997
하루동안	-8998
학대방임	-8999
▁TK	-9000
▁며칠	-9001
당하지	-9002
사왜곡	-9003
잠하지	-9004
항공의	-9005
▁240	-9006
▁264	-9007
▁간부들	-9008
▁거래서	-9009
▁게임노	-9010
▁구축함	-9011
▁규모는	-9012
▁금리발	-9013
▁긴장하	-9014
▁김은경	-9015
▁눈물의	-9016
▁달라진	-9017
▁답이다	-9018
▁뒤집혀	-9019
▁뒤집힌	-9020
▁며칠간	-9021
▁명예퇴	-9022
▁문건에	-9023
▁문건은	-9024
▁발의할	-9025
▁부담감	-9026
▁부담에	-9027
▁부담을	-9028
▁부담주	-9029
▁사의표	-9030
▁사이버	-9031
▁사이클	-9032
▁선박서	-9033
▁선택직	-9034
▁선택한	-9035
▁아내와	-9036
▁어려운	-9037
▁언론도	-9038
▁언론사	-9039
▁여행할	-9040
▁영화제	-9041
▁울산남	-9042
▁유행의	-9043
▁유행후	-9044
▁유흥가	-9045
▁응원곡	-9046
▁이동량	-9047
▁이승윤	-9048
▁이익매	-9049
▁이익모	-9050
▁이하가	-9051
▁인증서	-9052
▁정보복	-9053
▁정보탈	-9054
▁정책도	-9055
▁준비한	-9056
▁증가시	-9057
▁진화율	-9058
▁참여국	-9059
▁학생도	-9060
▁학생수	-9061
▁핵심원	-9062
▁횡령액	-9063
법정에서	-9064
스타그램	-9065
역사왜곡	-9066
학동행정	-9067
학생한테	-9068
한국어곡	-9069
한일관계	-9070
해저터널	-9071
해주세요	-9072
핵폭탄이	-9073
했는데도	-9074
행정소송	-9075
헬기사격	-9076
헬스클럽	-9077
혐오대화	-9078
협력설에	-9079
형전기차	-9080
호타이어	-9081
환경보호	-9082
황하나와	-9083
효력정지	-9084
후보될까	-9085
휴가비에	-9086
흥국생명	-9087
'···"	-9088
...26	-9089
...98	-9090
.4%↑“	-9091
.51%↓	-9092
1,500	-9093
117',	-9094
129!'	-9095
5,000	-9096
8%...	-9097
ECORD	-9098
▁"202	-9099
▁쳤다	-9100
결정권	-9101
고민정	-9102
국제법	-9103
당하자	-9104
도변화	-9105
들어준	-9106
뭉쳤다	-9107
미국과	-9108
미국에	-9109
미국행	-9110
반민정	-9111
반사퇴	-9112
부사건	-9113
분기말	-9114
사퇴로	-9115
사퇴론	-9116
생활비	-9117
우상호	-9118
은퇴설	-9119
이재영	-9120
이터기	-9121
재산누	-9122
재산축	-9123
지나치	-9124
찮을까	-9125
풀타임	-9126
해지나	-9127
2117	-9128
▁꺼지나	-9129
▁내려쳐	-9130
▁내면허	-9131
▁당혹감	-9132
▁데뷔골	-9133
▁뭉쳤다	-9134
▁반민정	-9135
▁사면에	-9136
▁없을까	-9137
▁올랐다	-9138
▁원인은	-9139
▁잡을까	-9140
▁정총리	-9141
▁주어져	-9142
▁주인은	-9143
▁증상은	-9144
▁지쳤다	-9145
▁친정권	-9146
고민정에	-9147
공격다운	-9148
괜찮을까	-9149
김여정은	-9150
동반사퇴	-9151
변이에도	-9152
부상하는	-9153
분기까지	-9154
이터기반	-9155
재산누락	-9156
재산축소	-9157
지나치게	-9158
타임스와	-9159
투자하지	-9160
한국투자	-9161
▁'148	-9162
▁'163	-9163
▁-13°	-9164
▁-20'	-9165
▁0.2%	-9166
▁0.5%	-9167
▁0.8%	-9168
▁1.14	-9169
▁1.6%	-9170
▁11.8	-9171
▁125%	-9172
▁13%,	-9173
▁15.6	-9174
▁1611	-9175
▁2.1%	-9176
▁23%,	-9177
▁2962	-9178
▁2990	-9179
▁3,07	-9180
▁4364	-9181
▁4500	-9182
▁4931	-9183
▁62%↓	-9184
▁6465	-9185
▁70%'	-9186
▁7600	-9187
▁80%"	-9188
▁APEC	-9189
▁FIFA	-9190
▁[4·7	-9191
▁···"	-9192
▁‘249	-9193
▁‘2·4	-9194
▁“586	-9195
▁가덕도파	-9196
▁가을야구	-9197
▁가을에도	-9198
▁가택연금	-9199
-22	-9200
-26	-9201
-2’	-9202
CON	-9203
FDA	-9204
NTF	-9205
▁TF	-9206
▁늦지	-9207
▁라비	-9208
▁죽고	-9209
▁죽이	-9210
▁죽자	-9211
▁형님	-9212
▁형편	-9213
▁홈피	-9214
공개할	-9215
공원내	-9216
기아차	-9217
란공원	-9218
린공원	-9219
비공개	-9220
비협력	-9221
이중지	-9222
지니어	-9223
타되나	-9224
-2.1	-9225
KCON	-9226
▁-26	-9227
▁UBS	-9228
▁방치된	-9229
▁성장판	-9230
▁양현석	-9231
▁언제쯤	-9232
▁역사는	-9233
▁연기된	-9234
▁연기상	-9235
▁영원히	-9236
▁완화로	-9237
▁유도로	-9238
▁유출에	-9239
▁이후엔	-9240
▁제기자	-9241
▁집걱정	-9242
▁추락기	-9243
▁추락한	-9244
▁판단력	-9245
▁형님들	-9246
▁홈피에	-9247
▁훈련병	-9248
▁훈련에	-9249
▁훈련장	-9250
근린공원	-9251
대전화로	-9252
문화공원	-9253
비협력시	-9254
스피어가	-9255
엔지니어	-9256
여년만에	-9257
올림픽은	-9258
이낙연에	-9259
이중지급	-9260
재했지만	-9261
지임대부	-9262
황했지만	-9263
]2020	-9264
▁가해자는	-9265
▁감동적인	-9266
▁감사방해	-9267
▁감염자는	-9268
▁감청파일	-9269
▁강경대응	-9270
▁강력규탄	-9271
▁강력범죄	-9272
▁강승연에	-9273
▁강풍특보	-9274
▁강풍피해	-9275
▁강해진다	-9276
▁강화나서	-9277
▁강화조치	-9278
▁개발이익	-9279
▁개발정보	-9280
▁개선해야	-9281
▁개혁해야	-9282
▁거짓신고	-9283
▁건물주도	-9284
▁건설현장	-9285
▁건조경보	-9286
▁검사결과	-9287
▁게시판에	-9288
▁게임노트	-9289
▁격리해제	-9290
▁격상되면	-9291
▁견본주택	-9292
▁결론내나	-9293
▁결정될듯	-9294
▁경기도민	-9295
▁경북도내	-9296
▁경비행기	-9297
▁고비마다	-9298
▁고양이뿐	-9299
152	-9300
교학교	-9301
구의회	-9302
라질서	-9303
문절차	-9304
물적인	-9305
백악관	-9306
부당한	-9307
사랑의	-9308
숙인의	-9309
시의회	-9310
저스와	-9311
정혁신	-9312
주의로	-9313
중립성	-9314
중학교	-9315
증권과	-9316
지수용	-9317
차가해	-9318
터업계	-9319
트아웃	-9320
필했던	-9321
헌법도	-9322
헌법적	-9323
▁21%	-9324
▁222	-9325
▁227	-9326
▁382	-9327
▁거리에	-9328
▁공동체	-9329
▁구마사	-9330
▁국제콘	-9331
▁국제학	-9332
▁국회서	-9333
▁날치기	-9334
▁내부가	-9335
▁내부충	-9336
▁달라질	-9337
▁도전은	-9338
▁두차례	-9339
▁들끓자	-9340
▁만든다	-9341
▁모녀는	-9342
▁목소리	-9343
▁민주노	-9344
▁민주적	-9345
▁반응력	-9346
▁별사랑	-9347
▁새치기	-9348
▁세상을	-9349
▁안할까	-9350
▁앙상블	-9351
▁애틀란	-9352
▁연기인	-9353
▁의약품	-9354
▁적이다	-9355
▁제기에	-9356
▁진주시	-9357
▁파주시	-9358
▁향할까	-9359
국제사회	-9360
다저스와	-9361
마사회장	-9362
브라질서	-9363
선교학교	-9364
속물적인	-9365
심문절차	-9366
언스리그	-9367
옵트아웃	-9368
음악중심	-9369
지역의회	-9370
테구의회	-9371
토지수용	-9372
특필했던	-9373
152.1	-9374
▁2228	-9375
▁7243	-9376
▁거리시위	-9377
▁거리에서	-9378
▁결과보니	-9379
▁고용지표	-9380
▁고용한파	-9381
▁골드더비	-9382
▁곳곳으로	-9383
▁공갈미수	-9384
▁공개일정	-9385
▁공개활동	-9386
▁공격이면	-9387
▁공식입장	-9388
▁공연시설	-9389
▁공포감에	-9390
▁광저우와	-9391
▁광주상의	-9392
▁괜찮을까	-9393
▁교체출전	-9394
▁교환계약	-9395
▁구급대원	-9396
▁구정혁신	-9397
▁국립경주	-9398
▁국무장관	-9399
(18	-9400
HOT	-9401
HTS	-9402
IPO	-9403
MTS	-9404
▁DM	-9405
▁DS	-9406
▁TS	-9407
▁길고	-9408
▁길로	-9409
▁망국	-9410
▁먹던	-9411
▁먹인	-9412
▁암시	-9413
▁잔고	-9414
▁잔도	-9415
▁존경	-9416
▁존치	-9417
▁천명	-9418
▁천사	-9419
▁크다	-9420
▁크레	-9421
▁태연	-9422
▁팬오	-9423
▁풀고	-9424
▁풀어	-9425
김대호	-9426
문제에	-9427
빕니다	-9428
약개발	-9429
입니다	-9430
자개발	-9431
친절한	-9432
▁318	-9433
▁718	-9434
▁DSP	-9435
▁HTS	-9436
▁IPO	-9437
▁개인적	-9438
▁공공택	-9439
▁기사앱	-9440
▁끝나지	-9441
▁네번째	-9442
▁늘리기	-9443
▁득점수	-9444
▁들어야	-9445
▁망국적	-9446
▁반박에	-9447
▁반박한	-9448
▁발사장	-9449
▁빕니다	-9450
▁수술로	-9451
▁실패한	-9452
▁여부와	-9453
▁운영재	-9454
▁위기에	-9455
▁의지도	-9456
▁쟁점법	-9457
▁저금리	-9458
▁제작진	-9459
▁조국과	-9460
▁주민이	-9461
▁직거래	-9462
▁출연진	-9463
▁침묵에	-9464
▁투입된	-9465
▁팬오션	-9466
▁풀어줘	-9467
▁풀었다	-9468
▁한파에	-9469
▁희귀병	-9470
김대호의	-9471
종문제에	-9472
▁감찰한다	-9473
▁공공택지	-9474
▁국무회의	-9475
▁국방부와	-9476
▁국방전략	-9477
▁국정조사	-9478
▁국제학교	-9479
▁국토장관	-9480
▁권력기관	-9481
▁권한대행	-9482
▁규제강화	-9483
▁규제에도	-9484
▁극복하길	-9485
▁금융시장	-9486
▁기다리는	-9487
▁기부단체	-9488
▁기소했나	-9489
▁기술개발	-9490
▁기조부장	-9491
▁기준금리	-9492
▁기초단체	-9493
▁기초자료	-9494
▁긴급대출	-9495
▁긴급출동	-9496
▁긴장하겠	-9497
▁김보름의	-9498
▁김봉진도	-9499
MLB	-9500
▁귀여	-9501
▁귀환	-9502
▁놓치	-9503
▁놓친	-9504
▁담대	-9505
▁담은	-9506
▁독감	-9507
▁독재	-9508
▁되돌	-9509
▁벌어	-9510
▁빼며	-9511
▁싸늘	-9512
▁왕기	-9513
▁왕실	-9514
▁왕이	-9515
▁왕자	-9516
▁용인	-9517
▁잘생	-9518
▁좋다	-9519
▁좋은	-9520
고보니	-9521
과도한	-9522
기세요	-9523
다음달	-9524
듣는다	-9525
만여명	-9526
문화로	-9527
믿는다	-9528
박하다	-9529
배소송	-9530
사지수	-9531
설위원	-9532
성교육	-9533
센터장	-9534
술하다	-9535
스마트	-9536
식자리	-9537
안재판	-9538
야간산	-9539
여명도	-9540
영업자	-9541
월하다	-9542
위원소	-9543
위원장	-9544
의사될	-9545
의사항	-9546
잡는다	-9547
져보니	-9548
중환자	-9549
징역형	-9550
폭풍전	-9551
해리스	-9552
해보니	-9553
현기차	-9554
환자는	-9555
▁603	-9556
▁간호사	-9557
▁귀여워	-9558
▁김학의	-9559
▁놓치나	-9560
▁독재의	-9561
▁되돌릴	-9562
▁듣는다	-9563
▁마세요	-9564
▁박용진	-9565
▁벌었다	-9566
▁부문서	-9567
▁사업자	-9568
▁왕기춘	-9569
▁용인시	-9570
▁잘생겨	-9571
▁잡는다	-9572
▁좋지만	-9573
▁좌절한	-9574
▁집보니	-9575
▁차장도	-9576
▁하세요	-9577
문화현장	-9578
설위원이	-9579
스마트폰	-9580
실사지수	-9581
알고보니	-9582
야간산불	-9583
의사항은	-9584
인성교육	-9585
자영업자	-9586
조사하다	-9587
치센터장	-9588
폭풍전야	-9589
회식자리	-9590
▁김세영은	-9591
▁깎아준다	-9592
▁깎아줄게	-9593
▁끊임없는	-9594
▁끝나간다	-9595
▁나눠줬다	-9596
▁나아가야	-9597
▁낙선했던	-9598
▁난데없이	-9599
%↑'	-9600
%↑-	-9601
.25	-9602
255	-9603
9%↑	-9604
▁깨끗	-9605
▁느슨	-9606
▁했는	-9607
경전철	-9608
양군수	-9609
자라서	-9610
직원에	-9611
하루새	-9612
환경개	-9613
2025	-9614
▁290	-9615
▁299	-9616
▁7%↑	-9617
▁725	-9618
▁경쟁률	-9619
▁경쟁사	-9620
▁교체투	-9621
▁국방수	-9622
▁깨끗이	-9623
▁느슨해	-9624
▁다른데	-9625
▁무안타	-9626
▁분노로	-9627
▁분노한	-9628
▁산업의	-9629
▁산업재	-9630
▁상황서	-9631
▁아들과	-9632
▁안전도	-9633
▁없이도	-9634
▁의심가	-9635
▁의심자	-9636
▁정상급	-9637
▁정상에	-9638
▁정상적	-9639
▁조치도	-9640
▁증시도	-9641
▁진출설	-9642
▁책임감	-9643
▁책임있	-9644
▁책임자	-9645
▁책임진	-9646
▁최다골	-9647
▁최다등	-9648
▁최종건	-9649
▁했는지	-9650
▁현장선	-9651
▁협의중	-9652
▁화성서	-9653
▁화성이	-9654
환경개선	-9655
%↑...	-9656
...”(	-9657
▁2994	-9658
▁6.25	-9659
▁8%↑'	-9660
▁교체투입	-9661
▁교체하고	-9662
▁국방수권	-9663
▁국방장관	-9664
▁기업경기	-9665
▁난입사태	-9666
▁날개다나	-9667
▁남양유업	-9668
▁남양주시	-9669
▁남인순에	-9670
▁남자선수	-9671
▁내려앉아	-9672
▁내부충돌	-9673
▁넣어두라	-9674
▁네티즌들	-9675
▁노숙인의	-9676
▁녹취록에	-9677
▁농장에서	-9678
▁누리꾼이	-9679
▁느끼지만	-9680
▁느슨해졌	-9681
▁늦어지는	-9682
▁니즈너와	-9683
▁다름없다	-9684
▁단일후보	-9685
▁달라지는	-9686
▁달라질까	-9687
▁달성한다	-9688
▁담대하게	-9689
▁당당하지	-9690
▁당선인의	-9691
▁대구교회	-9692
▁대구지검	-9693
▁대국민선	-9694
▁대도시에	-9695
▁대면조사	-9696
▁대박주는	-9697
▁대북전단	-9698
▁대비해야	-9699
50~	-9700
550	-9701
GSK	-9702
’50	-9703
▁PK	-9704
▁PO	-9705
▁벤제	-9706
▁벤츠	-9707
▁벤치	-9708
▁약점	-9709
▁약진	-9710
▁약혼	-9711
▁월드	-9712
▁응전	-9713
▁점유	-9714
▁점차	-9715
▁점철	-9716
▁점화	-9717
▁좌절	-9718
▁챔스	-9719
▁토로	-9720
▁향기	-9721
▁훈장	-9722
▁훈증	-9723
공관서	-9724
국인가	-9725
데이라	-9726
됐다고	-9727
량실점	-9728
류현경	-9729
모임발	-9730
브랜드	-9731
안타까	-9732
어떻게	-9733
오리온	-9734
올해도	-9735
이라던	-9736
인모임	-9737
정치국	-9738
정치참	-9739
직원실	-9740
직원은	-9741
퇴근길	-9742
..10	-9743
▁210	-9744
▁450	-9745
▁GSK	-9746
▁POI	-9747
▁[10	-9748
▁김다운	-9749
▁말렸다	-9750
▁벤제마	-9751
▁분이라	-9752
▁살렸다	-9753
▁약혼남	-9754
▁월드컵	-9755
▁점유율	-9756
▁점철된	-9757
▁퇴근길	-9758
▁활용할	-9759
검찰이라	-9760
데이라섬	-9761
뻔뻔하게	-9762
안타까운	-9763
이라는데	-9764
이라더니	-9765
정치인이	-9766
정치참여	-9767
직원실수	-9768
▁"50~	-9769
▁'110	-9770
▁1110	-9771
▁5.4%	-9772
▁POIN	-9773
▁골랐지만	-9774
▁구속됐다	-9775
▁대량실점	-9776
▁대선출마	-9777
▁대설특보	-9778
▁대역전승	-9779
▁대외관계	-9780
▁대중교통	-9781
▁대질신문	-9782
▁대책회의	-9783
▁대표답게	-9784
▁대형행사	-9785
▁도로공사	-9786
▁도서관서	-9787
▁도시에서	-9788
▁도전이냐	-9789
▁독감보다	-9790
▁독자개발	-9791
▁돌아왔다	-9792
▁동반출연	-9793
▁동반하락	-9794
▁동태탕집	-9795
▁되찾겠다	-9796
▁뒤따라가	-9797
▁뒤져보니	-9798
▁뒤집어쓰	-9799
▁돈은	-9800
▁돼야	-9801
▁졌다	-9802
고진영	-9803
관계자	-9804
김없는	-9805
끝없는	-9806
나서도	-9807
레일리	-9808
례없는	-9809
문정원	-9810
뭘했나	-9811
미없는	-9812
변없는	-9813
빙사고	-9814
어졌다	-9815
우리나	-9816
우리집	-9817
유조선	-9818
장서도	-9819
정의가	-9820
정의선	-9821
정의와	-9822
정의용	-9823
진중권	-9824
현정의	-9825
→100	-9826
▁가족을	-9827
▁가족의	-9828
▁강원도	-9829
▁구단과	-9830
▁국내선	-9831
▁급등세	-9832
▁끝없는	-9833
▁내정불	-9834
▁등졌다	-9835
▁뭘했나	-9836
▁비난전	-9837
▁살인범	-9838
▁살인은	-9839
▁손정의	-9840
▁수용자	-9841
▁시민과	-9842
▁시민들	-9843
▁애플과	-9844
▁연세대	-9845
▁입장권	-9846
▁입장은	-9847
▁입장차	-9848
▁차세대	-9849
▁출신에	-9850
▁출전할	-9851
▁친형과	-9852
▁투표가	-9853
▁투표서	-9854
▁화장품	-9855
계약세대	-9856
관계자에	-9857
국내감염	-9858
국내서도	-9859
도심에도	-9860
떨어졌다	-9861
수도권이	-9862
없는서울	-9863
영화소식	-9864
오늘날씨	-9865
우리나라	-9866
전례없는	-9867
최현정의	-9868
...3~	-9869
▁가족감염	-9870
▁결빙사고	-9871
▁국내선들	-9872
▁국무총리	-9873
▁뒷받침한	-9874
▁드러냈다	-9875
▁들어달라	-9876
▁들어줬다	-9877
▁등극하나	-9878
▁등판에서	-9879
▁따로없다	-9880
▁떨어뜨려	-9881
▁뛰어넘나	-9882
▁라멜라의	-9883
▁라이온즈	-9884
▁런던으로	-9885
▁로봇차량	-9886
▁로비의혹	-9887
▁롤러블폰	-9888
▁마러라고	-9889
▁마무리될	-9890
▁마을법무	-9891
▁막전막후	-9892
▁만나주면	-9893
▁만들면서	-9894
▁만들어야	-9895
▁만들어준	-9896
▁만취운전	-9897
▁맡기겠다	-9898
▁명예퇴직	-9899
▁BA	-9900
▁BV	-9901
▁각자	-9902
▁각형	-9903
▁꺼내	-9904
▁데려	-9905
▁데자	-9906
▁디렉	-9907
▁디에	-9908
▁따뜻	-9909
▁따르	-9910
▁따상	-9911
▁떠넘	-9912
▁블루	-9913
▁빅딜	-9914
▁빅뱅	-9915
▁빼앗	-9916
▁석달	-9917
▁칼부	-9918
▁품목	-9919
▁품에	-9920
가족도	-9921
결혼식	-9922
그룹에	-9923
사자의	-9924
아이비	-9925
아이폰	-9926
의원직	-9927
장이식	-9928
쳐지는	-9929
판사문	-9930
▁323	-9931
▁7.4	-9932
▁BAL	-9933
▁BVB	-9934
▁갈등에	-9935
▁갈등이	-9936
▁경제지	-9937
▁교수는	-9938
▁교수들	-9939
▁구의원	-9940
▁기술선	-9941
▁꺼내는	-9942
▁데려갔	-9943
▁데자뷔	-9944
▁도입에	-9945
▁도입주	-9946
▁디렉터	-9947
▁디에트	-9948
▁따뜻한	-9949
▁따르더	-9950
▁떠넘기	-9951
▁바이트	-9952
▁반발도	-9953
▁분쟁은	-9954
▁블레이	-9955
▁빼앗으	-9956
▁사퇴는	-9957
▁세종에	-9958
▁수용한	-9959
▁시의원	-9960
▁시장도	-9961
▁시장의	-9962
▁영향권	-9963
▁영향력	-9964
▁영향에	-9965
▁운영자	-9966
▁접촉한	-9967
▁접촉해	-9968
▁제보자	-9969
▁찾아온	-9970
▁찾아와	-9971
▁칼부림	-9972
▁커지는	-9973
▁특별한	-9974
▁하다니	-9975
▁회장을	-9976
▁휘말린	-9977
결혼식장	-9978
관계했다	-9979
아이비파	-9980
요양시설	-9981
판사문건	-9982
▁3233	-9983
▁걸그룹에	-9984
▁경제지들	-9985
▁국가배상	-9986
▁기술선점	-9987
▁김정은의	-9988
▁나아지지	-9989
▁데려갔다	-9990
▁디렉터도	-9991
▁디에트르	-9992
▁딥페이크	-9993
▁떠넘기기	-9994
▁명품수비	-9995
▁모르지만	-9996
▁모범사례	-9997
▁모습으로	-9998
▁모욕주기	-9999
CTV	-10000
▁UA	-10001
▁걸렸	-10002
▁높이	-10003
▁레벨	-10004
▁로고	-10005
▁로빈	-10006
▁로빙	-10007
▁로제	-10008
▁메디	-10009
▁메인	-10010
▁벗고	-10011
▁벗기	-10012
▁엄중	-10013
▁울린	-10014
▁죄질	-10015
▁활보	-10016
▁힘도	-10017
▁힘빠	-10018
▁힘이	-10019
경지역	-10020
락가락	-10021
래스카	-10022
론택시	-10023
발지역	-10024
성범죄	-10025
징계법	-10026
징계위	-10027
천지역	-10028
허경민	-10029
▁169	-10030
▁192	-10031
▁UAE	-10032
▁걸렸나	-10033
▁높이려	-10034
▁로빙슛	-10035
▁메디프	-10036
▁문제가	-10037
▁문제다	-10038
▁문제로	-10039
▁문제였	-10040
▁생각했	-10041
▁신고한	-10042
▁유지중	-10043
▁유지태	-10044
▁의사에	-10045
▁인상이	-10046
▁재난기	-10047
▁쟁점은	-10048
▁중징계	-10049
▁직무배	-10050
▁충격과	-10051
▁충격패	-10052
▁튜브로	-10053
▁힘빠지	-10054
경지역서	-10055
래스카로	-10056
예천지역	-10057
정보당국	-10058
징계하라	-10059
▁1600	-10060
▁1900	-10061
▁CCTV	-10062
▁다발지역	-10063
▁드론택시	-10064
▁마스크판	-10065
▁메디프론	-10066
▁모자라서	-10067
▁모집하면	-10068
▁못믿는다	-10069
▁못잡는다	-10070
▁무너졌다	-10071
▁무너지는	-10072
▁무산두고	-10073
▁무역수입	-10074
▁무역회사	-10075
▁문다혜씨	-10076
▁문제없다	-10077
▁문제였나	-10078
▁문제인가	-10079
▁물러나는	-10080
▁물러나야	-10081
▁미국감독	-10082
▁미스터리	-10083
▁미식축구	-10084
▁민주노총	-10085
▁박광일씨	-10086
▁박요한과	-10087
▁박철우의	-10088
▁반도건설	-10089
▁반도체가	-10090
▁반도체에	-10091
▁받아쳐야	-10092
▁발매즉시	-10093
▁발사에도	-10094
▁밝혀져야	-10095
▁방역활동	-10096
▁방조혐의	-10097
▁배상하라	-10098
▁배신감에	-10099
▁CW	-10100
▁IB	-10101
▁IC	-10102
▁IN	-10103
▁농구	-10104
▁농어	-10105
▁맨체	-10106
▁머무	-10107
▁머선	-10108
▁머저	-10109
▁버그	-10110
▁버디	-10111
▁버릴	-10112
▁버티	-10113
▁빛나	-10114
▁터널	-10115
▁터져	-10116
▁터졌	-10117
▁터치	-10118
▁퇴거	-10119
▁편리	-10120
▁편애	-10121
▁휴방	-10122
▁휴업	-10123
▁휴원	-10124
경제계	-10125
경제적	-10126
내대표	-10127
당대표	-10128
대검엔	-10129
도시권	-10130
무주서	-10131
빼달라	-10132
시방역	-10133
오범죄	-10134
워달라	-10135
이러니	-10136
조달러	-10137
헌정사	-10138
.46%	-10139
▁1-1	-10140
▁178	-10141
▁17~	-10142
▁180	-10143
▁380	-10144
▁4-1	-10145
▁40%	-10146
▁406	-10147
▁CWS	-10148
▁IBK	-10149
▁ICB	-10150
▁INS	-10151
▁계속될	-10152
▁고소자	-10153
▁공격적	-10154
▁농구단	-10155
▁농어촌	-10156
▁돌아갈	-10157
▁돌아보	-10158
▁머무른	-10159
▁머저리	-10160
▁모리뉴	-10161
▁박은정	-10162
▁버는데	-10163
▁버티는	-10164
▁선언할	-10165
▁시도민	-10166
▁시도한	-10167
▁약세에	-10168
▁있더니	-10169
▁있어야	-10170
▁잡더니	-10171
▁트윗뿐	-10172
▁편애에	-10173
▁피징계	-10174
▁회사가	-10175
겠다더니	-10176
경제계는	-10177
공수처로	-10178
대도시권	-10179
무기징역	-10180
볼선수권	-10181
원시방역	-10182
정면돌파	-10183
증오범죄	-10184
지워달라	-10185
···80	-10186
▁ICBM	-10187
▁INSI	-10188
▁계속된다	-10189
▁돌아보길	-10190
▁맨체스터	-10191
▁머저리들	-10192
▁모리뉴가	-10193
▁백건우와	-10194
▁백기완의	-10195
▁백지화에	-10196
▁벌어질까	-10197
▁법관회의	-10198
▁법무장관	-10199
▁녹음	-10200
▁물결	-10201
▁물대	-10202
▁물려	-10203
▁물밑	-10204
▁물에	-10205
▁석권	-10206
▁잡는	-10207
▁질병	-10208
▁질질	-10209
▁질책	-10210
▁질환	-10211
▁침수	-10212
건장관	-10213
뛰기로	-10214
무장관	-10215
사실여	-10216
섭단체	-10217
성장에	-10218
스타로	-10219
스타십	-10220
스타일	-10221
스타힐	-10222
야기로	-10223
유기로	-10224
일수출	-10225
정청래	-10226
총장이	-10227
총장지	-10228
최고인	-10229
최고치	-10230
춘스타	-10231
코리아	-10232
피로감	-10233
하장에	-10234
한국은	-10235
흉기로	-10236
▁"'3	-10237
▁172	-10238
▁43%	-10239
▁53%	-10240
▁공장도	-10241
▁대상서	-10242
▁물대포	-10243
▁물려줄	-10244
▁선발에	-10245
▁윤총장	-10246
▁자연휴	-10247
▁중국산	-10248
▁중국에	-10249
▁질병청	-10250
▁협력해	-10251
▁화장할	-10252
▁확인서	-10253
▁효과는	-10254
검찰총장	-10255
박영선엔	-10256
반하장에	-10257
사실여부	-10258
스타힐스	-10259
청춘스타	-10260
총장지시	-10261
최고인민	-10262
프스타일	-10263
▁'13%	-10264
▁0...	-10265
▁교섭단체	-10266
▁녹음하는	-10267
▁닫겠다거	-10268
▁두려웠다	-10269
▁물려줄수	-10270
▁법적대응	-10271
▁법정공방	-10272
▁법정구속	-10273
▁벗어났다	-10274
▁벗으라는	-10275
▁병참기지	-10276
▁보건장관	-10277
▁보완돼야	-10278
▁보호관찰	-10279
▁복합제제	-10280
▁부끄러워	-10281
▁부담보다	-10282
▁부담주려	-10283
▁부당해고	-10284
▁부러워한	-10285
▁부모되나	-10286
▁부상으로	-10287
▁부작용은	-10288
▁부정평가	-10289
▁부착차량	-10290
▁부통령에	-10291
▁부통령이	-10292
▁분노해도	-10293
▁분류인력	-10294
▁분통터진	-10295
▁불러왔다	-10296
▁불참에도	-10297
▁브라이턴	-10298
▁브라이튼	-10299
단절	-10300
란표	-10301
목태	-10302
배정	-10303
배치	-10304
수원	-10305
신주	-10306
엄한	-10307
용산	-10308
일용	-10309
지마	-10310
지옥	-10311
지해	-10312
캡처	-10313
퇴비	-10314
▁Gr	-10315
▁게양	-10316
▁경전	-10317
▁될지	-10318
▁딸에	-10319
▁딸이	-10320
▁석상	-10321
▁업로	-10322
▁엘린	-10323
▁은퇴	-10324
▁줄고	-10325
▁줄사	-10326
▁줄일	-10327
▁줄줄	-10328
▁줄폐	-10329
▁추후	-10330
▁탈당	-10331
▁탈취	-10332
▁희토	-10333
대책이	-10334
럼에도	-10335
목태클	-10336
반려견	-10337
복동생	-10338
삼엄한	-10339
억원에	-10340
우조선	-10341
웨이트	-10342
이트에	-10343
이트전	-10344
일용직	-10345
재계약	-10346
주호영	-10347
지마라	-10348
컨신주	-10349
함소원	-10350
▁Gro	-10351
▁결혼과	-10352
▁결혼도	-10353
▁경기북	-10354
▁경전철	-10355
▁괴물의	-10356
▁금지국	-10357
▁기업들	-10358
▁목표는	-10359
▁반란표	-10360
▁업로드	-10361
▁연수원	-10362
▁잠재부	-10363
▁줄사표	-10364
▁줄폐업	-10365
▁해지해	-10366
▁협박도	-10367
▁희토류	-10368
격인터뷰	-10369
그럼에도	-10370
보험사기	-10371
스컨신주	-10372
이러려고	-10373
징계위도	-10374
한국케미	-10375
▁Grou	-10376
▁가지마라	-10377
▁결혼까지	-10378
▁결혼했다	-10379
▁경기북부	-10380
▁교도소장	-10381
▁대우조선	-10382
▁대응으로	-10383
▁목마인가	-10384
▁발목태클	-10385
▁부산대구	-10386
▁블레이크	-10387
▁비공개로	-10388
▁비교되는	-10389
▁비상방역	-10390
▁비하인드	-10391
▁빅딜이냐	-10392
▁빅리거들	-10393
▁빠진다면	-10394
▁사망사건	-10395
▁사망설에	-10396
▁사면해야	-10397
▁사실관계	-10398
▁사의표명	-10399
▁父	-10400
닥서	-10401
덤핑	-10402
무안	-10403
믿고	-10404
박탈	-10405
반찬	-10406
본색	-10407
수행	-10408
연지	-10409
우니	-10410
우스	-10411
웃국	-10412
위증	-10413
윤국	-10414
자라	-10415
치러	-10416
토권	-10417
펠리	-10418
회담	-10419
95%	-10420
▁“#	-10421
▁기후	-10422
▁맞손	-10423
▁먹다	-10424
▁무한	-10425
▁불길	-10426
▁선교	-10427
▁소원	-10428
▁수형	-10429
▁아성	-10430
▁차주	-10431
▁판쳐	-10432
▁포근	-10433
▁행운	-10434
게잡이	-10435
격합의	-10436
결자금	-10437
경희의	-10438
낭비할	-10439
덤핑관	-10440
릴리온	-10441
본색원	-10442
비토권	-10443
신상털	-10444
이웃국	-10445
잘자라	-10446
준수사	-10447
중회담	-10448
총파업	-10449
펠리칸	-10450
피우니	-10451
해위증	-10452
!...	-10453
▁나오네	-10454
▁마포구	-10455
▁무한연	-10456
▁바닥서	-10457
▁바치러	-10458
▁박윤국	-10459
▁받는다	-10460
▁범인은	-10461
▁소원수	-10462
▁수형인	-10463
▁시장선	-10464
▁시청각	-10465
▁영하권	-10466
▁이익만	-10467
▁제조업	-10468
▁프리뷰	-10469
▁함연지	-10470
▁행운의	-10471
덤핑관세	-10472
동결자금	-10473
람피우니	-10474
수행비서	-10475
신상털기	-10476
안요양원	-10477
전격합의	-10478
준수사항	-10479
트릴리온	-10480
▁기후회의	-10481
▁김경희의	-10482
▁라모스는	-10483
▁모란공원	-10484
▁모해위증	-10485
▁무한연장	-10486
▁미중회담	-10487
▁발본색원	-10488
▁사이트에	-10489
▁사천에어	-10490
▁삭제요구	-10491
▁산불진화	-10492
▁산업재편	-10493
▁산책로에	-10494
▁살해하고	-10495
▁살해했나	-10496
▁삼자범퇴	-10497
▁상대로도	-10498
▁상반기중	-10499
▁똑	-10500
▁몇	-10501
각때	-10502
감은	-10503
견례	-10504
김시	-10505
네요	-10506
돌봄	-10507
란법	-10508
레반	-10509
마르	-10510
멱살	-10511
문과	-10512
바일	-10513
밥맛	-10514
생건	-10515
스티	-10516
쌓기	-10517
앗아	-10518
연저	-10519
오바	-10520
오페	-10521
이애	-10522
전은	-10523
지작	-10524
타고	-10525
항마	-10526
확성	-10527
?!]	-10528
▁똑같	-10529
▁리믹	-10530
▁먹나	-10531
▁멱살	-10532
▁받지	-10533
▁발족	-10534
▁밥맛	-10535
▁섹션	-10536
▁승객	-10537
▁앗아	-10538
▁쟁의	-10539
▁희비	-10540
개각때	-10541
견례땐	-10542
김시래	-10543
스티안	-10544
연저감	-10545
오바마	-10546
오페라	-10547
의문과	-10548
이애미	-10549
족감은	-10550
차이나	-10551
▁265	-10552
▁기업물	-10553
▁대항마	-10554
▁똑같아	-10555
▁리믹스	-10556
▁만지작	-10557
▁말란법	-10558
▁명확성	-10559
▁모바일	-10560
▁물오른	-10561
▁비전은	-10562
▁섹션도	-10563
▁순천시	-10564
▁신기술	-10565
▁앗아간	-10566
▁오네요	-10567
▁온가족	-10568
▁재소자	-10569
▁투기는	-10570
네이마르	-10571
댓차이나	-10572
방역조치	-10573
사이영상	-10574
연저감장	-10575
이애미전	-10576
차개각때	-10577
항의서한	-10578
▁기다렸다	-10579
▁기업물가	-10580
▁만족감은	-10581
▁명분쌓기	-10582
▁베스티안	-10583
▁봉쇄한다	-10584
▁상견례땐	-10585
▁상원지형	-10586
▁생각으로	-10587
▁생산공장	-10588
▁생활체육	-10589
▁샤이진보	-10590
▁서신애와	-10591
▁서울고검	-10592
▁서학개미	-10593
▁석방하라	-10594
▁선교단체	-10595
▁선박문제	-10596
▁선발보다	-10597
▁선언해야	-10598
▁선언했던	-10599
-7	-10600
▁됐	-10601
▁렛	-10602
▁뺀	-10603
경고	-10604
기호	-10605
단기	-10606
딛고	-10607
따상	-10608
뚜껑	-10609
라비	-10610
랑구	-10611
본적	-10612
북마	-10613
살던	-10614
연속	-10615
임덕	-10616
자국	-10617
정론	-10618
채만	-10619
코바	-10620
파제	-10621
한숨	-10622
▁가고	-10623
▁남김	-10624
▁납입	-10625
▁딛고	-10626
▁뚜껑	-10627
▁렛슨	-10628
▁유네	-10629
▁일이	-10630
▁장웅	-10631
▁허술	-10632
근본적	-10633
낵쟁이	-10634
도경찰	-10635
따상상	-10636
랜드는	-10637
박은석	-10638
별채만	-10639
북마크	-10640
야코바	-10641
영한은	-10642
▁5-7	-10643
▁관계인	-10644
▁구체적	-10645
▁납입완	-10646
▁도전에	-10647
▁동정론	-10648
▁떠오른	-10649
▁뚜껑열	-10650
▁레임덕	-10651
▁발자국	-10652
▁방파제	-10653
▁선발출	-10654
▁소수자	-10655
▁장웅준	-10656
▁정도로	-10657
▁중랑구	-10658
▁폭탄테	-10659
따상상상	-10660
수퍼메가	-10661
스낵쟁이	-10662
유흥업소	-10663
직권남용	-10664
파죽지세	-10665
▁개미들이	-10666
▁고영한은	-10667
▁남김없이	-10668
▁납입완료	-10669
▁대통령의	-10670
▁됐습니다	-10671
▁마야코바	-10672
▁목소리도	-10673
▁선발출격	-10674
▁선택직면	-10675
▁선택하면	-10676
▁설립한다	-10677
▁설치는데	-10678
▁성매매한	-10679
▁성적자기	-10680
▁성추행에	-10681
▁성탄절에	-10682
▁세계랭킹	-10683
▁세쌍둥이	-10684
▁세월호특	-10685
▁세종으로	-10686
▁셀프조사	-10687
▁소개해줄	-10688
▁소식으로	-10689
▁소원수리	-10690
▁소환수순	-10691
▁속도내야	-10692
▁손배소송	-10693
▁손배소에	-10694
▁손실보상	-10695
▁손잡았다	-10696
▁손해봤다	-10697
▁손헌수의	-10698
▁수사대상	-10699
FL	-10700
▁닮	-10701
▁덫	-10702
▁뒀	-10703
▁뜬	-10704
▁뜻	-10705
▁셋	-10706
♥'	-10707
감소	-10708
겨워	-10709
권주	-10710
극물	-10711
담대	-10712
대성	-10713
덕에	-10714
덕적	-10715
돋보	-10716
되지	-10717
련한	-10718
문구	-10719
문의	-10720
반박	-10721
변인	-10722
블지	-10723
설문	-10724
정당	-10725
주요	-10726
창재	-10727
첨금	-10728
춤형	-10729
투에	-10730
필카	-10731
핵잠	-10732
화범	-10733
▁고령	-10734
▁남친	-10735
▁닮은	-10736
▁덕에	-10737
▁돋보	-10738
▁둔화	-10739
▁뒀나	-10740
▁생쥐	-10741
▁수면	-10742
▁어워	-10743
▁위드	-10744
▁잠긴	-10745
▁지니	-10746
▁찍다	-10747
감소세	-10748
대문구	-10749
방화범	-10750
성노예	-10751
신창재	-10752
여의도	-10753
연설문	-10754
주요국	-10755
핵잠수	-10756
혈투에	-10757
▁109	-10758
▁NFL	-10759
▁개인에	-10760
▁경찰이	-10761
▁고령층	-10762
▁노련한	-10763
▁당첨금	-10764
▁대변인	-10765
▁더블지	-10766
▁도덕적	-10767
▁독극물	-10768
▁돋보인	-10769
▁리필카	-10770
▁맞춤형	-10771
▁미지수	-10772
▁북동쪽	-10773
▁생쥐가	-10774
▁쏘아올	-10775
▁어워즈	-10776
▁열었다	-10777
▁이대성	-10778
▁장문의	-10779
▁재반박	-10780
▁주담대	-10781
▁증권주	-10782
▁지겨워	-10783
▁지니너	-10784
▁지적에	-10785
▁투자해	-10786
교육장관	-10787
방화범은	-10788
페이코인	-10789
한다지만	-10790
핵잠수함	-10791
흡집내기	-10792
▁경제대책	-10793
▁대혈투에	-10794
▁동대문구	-10795
▁문제되지	-10796
▁수사의뢰	-10797
▁수색하는	-10798
▁수송지원	-10799
44	-10800
▁능	-10801
간에	-10802
결방	-10803
구현	-10804
나머	-10805
내각	-10806
내역	-10807
너희	-10808
놨던	-10809
뇌물	-10810
닉슨	-10811
독과	-10812
동창	-10813
블리	-10814
야죠	-10815
양화	-10816
자녀	-10817
정복	-10818
쫓기	-10819
피셜	-10820
호쿠	-10821
▁결장	-10822
▁긴밀	-10823
▁	-10824
.	-10825
"	-10826
'	-10827
,	-10828
이	-10829
사	-10830
1	-10831
대	-10832
지	-10833
0	-10834
에	-10835
의	-10836
로	-10837
정	-10838
기	-10839
다	-10840
수	-10841
시	-10842
전	-10843
도	-10844
인	-10845
나	-10846
원	-10847
부	-10848
2	-10849
·	-10850
리	-10851
명	-10852
자	-10853
주	-10854
상	-10855
진	-10856
고	-10857
가	-10858
장	-10859
국	-10860
한	-10861
서	-10862
[	-10863
]	-10864
아	-10865
신	-10866
스	-10867
선	-10868
공	-10869
해	-10870
보	-10871
성	-10872
일	-10873
3	-10874
소	-10875
종	-10876
조	-10877
어	-10878
은	-10879
제	-10880
는	-10881
‘	-10882
구	-10883
’	-10884
코	-10885
만	-10886
“	-10887
세	-10888
민	-10889
”	-10890
오	-10891
경	-10892
미	-10893
트	-10894
하	-10895
확	-10896
화	-10897
단	-10898
발	-10899
연	-10900
영	-10901
계	-10902
5	-10903
라	-10904
재	-10905
유	-10906
위	-10907
9	-10908
개	-10909
무	-10910
속	-10911
중	-10912
차	-10913
박	-10914
비	-10915
동	-10916
내	-10917
우	-10918
김	-10919
4	-10920
년	-10921
마	-10922
합	-10923
행	-10924
산	-10925
여	-10926
문	-10927
법	-10928
안	-10929
과	-10930
방	-10931
통	-10932
거	-10933
폭	-10934
당	-10935
검	-10936
적	-10937
최	-10938
백	-10939
역	-10940
추	-10941
감	-10942
실	-10943
출	-10944
S	-10945
6	-10946
치	-10947
호	-10948
회	-10949
승	-10950
용	-10951
모	-10952
강	-10953
결	-10954
두	-10955
관	-10956
?	-10957
금	-10958
반	-10959
격	-10960
석	-10961
들	-10962
임	-10963
등	-10964
파	-10965
후	-10966
윤	-10967
손	-10968
심	-10969
학	-10970
생	-10971
터	-10972
(	-10973
)	-10974
표	-10975
야	-10976
8	-10977
판	-10978
급	-10979
령	-10980
열	-10981
입	-10982
프	-10983
-	-10984
찰	-10985
현	-10986
남	-10987
바	-10988
울	-10989
7	-10990
까	-10991
청	-10992
투	-10993
교	-10994
업	-10995
없	-10996
불	-10997
접	-10998
배	-10999
증	-11000
집	-11001
직	-11002
면	-11003
양	-11004
체	-11005
권	-11006
분	-11007
설	-11008
타	-11009
니	-11010
간	-11011
려	-11012
포	-11013
K	-11014
피	-11015
%	-11016
으	-11017
건	-11018
흥	-11019
美	-11020
월	-11021
환	-11022
규	-11023
망	-11024
식	-11025
그	-11026
총	-11027
토	-11028
드	-11029
억	-11030
든	-11031
언	-11032
게	-11033
논	-11034
란	-11035
요	-11036
와	-11037
작	-11038
점	-11039
력	-11040
처	-11041
훈	-11042
늘	-11043
첫	-11044
노	-11045
운	-11046
예	-11047
준	-11048
징	-11049
A	-11050
L	-11051
더	-11052
매	-11053
천	-11054
러	-11055
태	-11056
달	-11057
물	-11058
북	-11059
카	-11060
애	-11061
초	-11062
난	-11063
약	-11064
변	-11065
순	-11066
형	-11067
데	-11068
혹	-11069
넘	-11070
독	-11071
살	-11072
본	-11073
외	-11074
취	-11075
크	-11076
음	-11077
T	-11078
근	-11079
병	-11080
올	-11081
책	-11082
각	-11083
론	-11084
택	-11085
래	-11086
탄	-11087
협	-11088
B	-11089
항	-11090
저	-11091
말	-11092
염	-11093
있	-11094
것	-11095
군	-11096
번	-11097
광	-11098
돌	-11099
별	-11100
송	-11101
N	-11102
질	-11103
했	-11104
C	-11105
뉴	-11106
럼	-11107
할	-11108
골	-11109
범	-11110
을	-11111
날	-11112
철	-11113
희	-11114
락	-11115
레	-11116
친	-11117
M	-11118
O	-11119
P	-11120
료	-11121
복	-11122
특	-11123
황	-11124
브	-11125
죄	-11126
린	-11127
견	-11128
르	-11129
혼	-11130
홍	-11131
었	-11132
목	-11133
절	-11134
허	-11135
패	-11136
플	-11137
또	-11138
버	-11139
G	-11140
H	-11141
새	-11142
편	-11143
루	-11144
막	-11145
향	-11146
힘	-11147
I	-11148
길	-11149
응	-11150
네	-11151
핵	-11152
누	-11153
축	-11154
겠	-11155
극	-11156
文	-11157
류	-11158
악	-11159
온	-11160
충	-11161
→	-11162
尹	-11163
참	-11164
측	-11165
평	-11166
능	-11167
앞	-11168
E	-11169
낙	-11170
삼	-11171
엔	-11172
창	-11173
퇴	-11174
티	-11175
슈	-11176
완	-11177
긴	-11178
효	-11179
s	-11180
머	-11181
얀	-11182
채	-11183
D	-11184
숨	-11185
알	-11186
디	-11187
키	-11188
품	-11189
與	-11190
담	-11191
된	-11192
술	-11193
테	-11194
함	-11195
野	-11196
받	-11197
족	-11198
째	-11199
히	-11200
v	-11201
던	-11202
듯	-11203
록	-11204
립	-11205
육	-11206
페	-11207
필	-11208
글	-11209
맞	-11210
못	-11211
왜	-11212
욕	-11213
커	-11214
활	-11215
F	-11216
北	-11217
갈	-11218
곳	-11219
농	-11220
쿠	-11221
녀	-11222
않	-11223
련	-11224
른	-11225
씨	-11226
압	-11227
끝	-11228
때	-11229
림	-11230
침	-11231
폐	-11232
걸	-11233
베	-11234
익	-11235
험	-11236
혐	-11237
혜	-11238
U	-11239
V	-11240
`	-11241
日	-11242
냐	-11243
눈	-11244
메	-11245
았	-11246
쟁	-11247
되	-11248
될	-11249
뒤	-11250
랑	-11251
슬	-11252
왕	-11253
율	-11254
착	-11255
풍	-11256
귀	-11257
몰	-11258
벌	-11259
색	-11260
져	-11261
촉	-11262
케	-11263
탈	-11264
혁	-11265
너	-11266
봉	-11267
움	-11268
휴	-11269
같	-11270
럽	-11271
워	-11272
즈	-11273
+	-11274
득	-11275
량	-11276
례	-11277
숙	-11278
줄	-11279
헌	-11280
英	-11281
따	-11282
를	-11283
블	-11284
잡	-11285
팀	-11286
!	-11287
中	-11288
곡	-11289
돼	-11290
딸	-11291
습	-11292
킹	-11293
틀	-11294
韓	-11295
롯	-11296
뷰	-11297
잠	-11298
찾	-11299
갑	-11300
람	-11301
랜	-11302
먹	-11303
빠	-11304
싸	-11305
찬	-11306
秋	-11307
맨	-11308
밀	-11309
웅	-11310
퍼	-11311
↑	-11312
靑	-11313
돈	-11314
빅	-11315
쇄	-11316
엄	-11317
풀	-11318
W	-11319
겨	-11320
름	-11321
며	-11322
벽	-11323
잘	-11324
즌	-11325
흠	-11326
X	-11327
Z	-11328
먼	-11329
층	-11330
클	-11331
Y	-11332
값	-11333
덕	-11334
됐	-11335
런	-11336
센	-11337
쇼	-11338
엘	-11339
옥	-11340
욱	-11341
존	-11342
춘	-11343
휘	-11344
m	-11345
~	-11346
께	-11347
닌	-11348
닝	-11349
떠	-11350
렸	-11351
률	-11352
링	-11353
벗	-11354
벤	-11355
좌	-11356
쳐	-11357
획	-11358
흔	-11359
n	-11360
꺼	-11361
낮	-11362
높	-11363
렌	-11364
밤	-11365
셀	-11366
액	-11367
졌	-11368
쿄	-11369
텔	-11370
튜	-11371
핑	-11372
홈	-11373
k	-11374
♥	-11375
檢	-11376
軍	-11377
놓	-11378
둘	-11379
묵	-11380
섭	-11381
쓰	-11382
좋	-11383
톱	-11384
픽	-11385
헬	-11386
혀	-11387
횡	-11388
故	-11389
곤	-11390
낸	-11391
땅	-11392
뜨	-11393
랙	-11394
롱	-11395
많	-11396
봐	-11397
뿐	-11398
십	-11399
암	-11400
왔	-11401
잔	-11402
죽	-11403
턴	-11404
팬	-11405
흘	-11406
安	-11407
굴	-11408
널	-11409
닥	-11410
둔	-11411
떻	-11412
랐	-11413
램	-11414
렉	-11415
릴	-11416
맹	-11417
빈	-11418
빼	-11419
얼	-11420
웨	-11421
즉	-11422
짜	-11423
촌	-11424
켜	-11425
콜	-11426
팅	-11427
팔	-11428
푸	-11429
/	-11430
g	-11431
前	-11432
吳	-11433
객	-11434
갤	-11435
궁	-11436
깊	-11437
꾼	-11438
꿈	-11439
냈	-11440
냥	-11441
답	-11442
떨	-11443
뛰	-11444
략	-11445
션	-11446
싱	-11447
싶	-11448
쌍	-11449
엇	-11450
였	-11451
짓	-11452
찍	-11453
츠	-11454
칼	-11455
캠	-11456
콘	-11457
큰	-11458
탕	-11459
털	-11460
톡	-11461
폰	-11462
훼	-11463
:	-11464
R	-11465
′	-11466
↓	-11467
걱	-11468
놀	-11469
느	-11470
랫	-11471
뢰	-11472
룡	-11473
릭	-11474
맛	-11475
뭐	-11476
밝	-11477
볼	-11478
빛	-11479
빨	-11480
삭	-11481
슨	-11482
죠	-11483
첩	-11484
캐	-11485
픈	-11486
헤	-11487
&	-11488
괴	-11489
꼬	-11490
끈	-11491
끌	-11492
끼	-11493
델	-11494
붙	-11495
뷔	-11496
빌	-11497
빙	-11498
솔	-11499
웃	-11500
젠	-11501
줬	-11502
짝	-11503
쳤	-11504
킨	-11505
탁	-11506
튼	-11507
팡	-11508
폼	-11509
햄	-11510
혈	-11511
힌	-11512
e	-11513
i	-11514
外	-11515
女	-11516
朴	-11517
無	-11518
곽	-11519
균	-11520
꺾	-11521
꾸	-11522
뇌	-11523
늦	-11524
덤	-11525
딜	-11526
뚫	-11527
럭	-11528
롭	-11529
몸	-11530
믿	-11531
벅	-11532
봄	-11533
봇	-11534
쉬	-11535
쎈	-11536
윗	-11537
융	-11538
잃	-11539
잇	-11540
줘	-11541
춰	-11542
칠	-11543
컨	-11544
컵	-11545
큐	-11546
텍	-11547
펑	-11548
펠	-11549
홀	-11550
흉	-11551
흡	-11552
c	-11553
株	-11554
겸	-11555
겹	-11556
곧	-11557
긍	-11558
꼴	-11559
꽃	-11560
끄	-11561
념	-11562
닉	-11563
님	-11564
댓	-11565
딩	-11566
딱	-11567
렬	-11568
맥	-11569
멈	-11570
멜	-11571
몬	-11572
몽	-11573
밑	-11574
벨	-11575
벼	-11576
샷	-11577
섬	-11578
써	-11579
쓴	-11580
앙	-11581
엠	-11582
웠	-11583
읍	-11584
챙	-11585
척	-11586
첼	-11587
춤	-11588
칸	-11589
컴	-11590
탐	-11591
탑	-11592
톤	-11593
틴	-11594
팟	-11595
폴	-11596
핫	-11597
흑	-11598
#	-11599
$	-11600
=	-11601
J	-11602
h	-11603
|	-11604
‧	-11605
獨	-11606
男	-11607
車	-11608
겼	-11609
궐	-11610
깎	-11611
깨	-11612
끊	-11613
납	-11614
났	-11615
냉	-11616
넣	-11617
넷	-11618
녹	-11619
덮	-11620
뒷	-11621
듀	-11622
뛴	-11623
렇	-11624
렴	-11625
룸	-11626
룹	-11627
륙	-11628
맑	-11629
멀	-11630
멕	-11631
멘	-11632
몫	-11633
묘	-11634
믹	-11635
밖	-11636
빚	-11637
빵	-11638
뻔	-11639
뿌	-11640
샤	-11641
셋	-11642
셰	-11643
쏟	-11644
씩	-11645
앵	-11646
엑	-11647
옵	-11648
쥐	-11649
쩌	-11650
쫓	-11651
챔	-11652
촬	-11653
칙	-11654
탱	-11655
팩	-11656
펜	-11657
혔	-11658
힐	-11659
p	-11660
r	-11661
t	-11662
x	-11663
★	-11664
法	-11665
盧	-11666
說	-11667
걷	-11668
겐	-11669
곪	-11670
굿	-11671
깔	-11672
끓	-11673
냅	-11674
넨	-11675
눌	-11676
닫	-11677
닷	-11678
댄	-11679
덜	-11680
둥	-11681
딥	-11682
땐	-11683
떡	-11684
떤	-11685
떼	-11686
뚜	-11687
뚝	-11688
띄	-11689
랭	-11690
렵	-11691
롤	-11692
롬	-11693
뤄	-11694
륜	-11695
릇	-11696
맡	-11697
멸	-11698
뮤	-11699
밍	-11700
쁘	-11701
쁨	-11702
삶	-11703
샌	-11704
셔	-11705
셜	-11706
쉽	-11707
슛	-11708
앤	-11709
얘	-11710
얻	-11711
옷	-11712
읽	-11713
잉	-11714
잭	-11715
젊	-11716
즐	-11717
즘	-11718
쪽	-11719
쯔	-11720
쯤	-11721
찌	-11722
찢	-11723
촛	-11724
칭	-11725
칵	-11726
캘	-11727
캡	-11728
켈	-11729
콤	-11730
콩	-11731
쿨	-11732
큼	-11733
탓	-11734
텐	-11735
툼	-11736
틱	-11737
팎	-11738
팰	-11739
풋	-11740
헨	-11741
훌	-11742
a	-11743
d	-11744
o	-11745
°	-11746
α	-11747
ᄋ	-11748
ᆞ	-11749
⁄	-11750
亞	-11751
反	-11752
父	-11753
發	-11754
西	-11755
갓	-11756
갔	-11757
겁	-11758
궤	-11759
깃	-11760
깜	-11761
깻	-11762
껏	-11763
껑	-11764
껴	-11765
꼭	-11766
꿔	-11767
뀌	-11768
끗	-11769
낀	-11770
낭	-11771
낼	-11772
냄	-11773
냇	-11774
넥	-11775
넬	-11776
놈	-11777
닭	-11778
덴	-11779
듭	-11780
땀	-11781
뜰	-11782
뜻	-11783
렀	-11784
룰	-11785
릉	-11786
멧	-11787
몹	-11788
묶	-11789
및	-11790
밟	-11791
밥	-11792
밭	-11793
뱃	-11794
뱅	-11795
봤	-11796
붐	-11797
빗	-11798
뺏	-11799
뽑	-11800
뽕	-11801
쁜	-11802
삐	-11803
샀	-11804
섹	-11805
셧	-11806
솟	-11807
슴	-11808
싣	-11809
쌓	-11810
썩	-11811
썸	-11812
쏘	-11813
쏠	-11814
쑥	-11815
쓸	-11816
앉	-11817
앗	-11818
앱	-11819
엎	-11820
옐	-11821
옹	-11822
웍	-11823
윈	-11824
윙	-11825
잊	-11826
잎	-11827
잰	-11828
졸	-11829
좀	-11830
짐	-11831
짚	-11832
짧	-11833
쪼	-11834
찝	-11835
찮	-11836
챌	-11837
챗	-11838
첨	-11839
컬	-11840
켓	-11841
쾅	-11842
쾌	-11843
쿼	-11844
킥	-11845
킬	-11846
탬	-11847
텃	-11848
팝	-11849
팽	-11850
펄	-11851
펙	-11852
펴	-11853
핀	-11854
훤	-11855
휩	-11856
흐	-11857
<	-11858
>	-11859
Q	-11860
j	-11861
u	-11862
ᄏ	-11863
ᄑ	-11864
∼	-11865
上	-11866
人	-11867
伊	-11868
佛	-11869
兄	-11870
先	-11871
南	-11872
印	-11873
土	-11874
大	-11875
子	-11876
對	-11877
尼	-11878
巨	-11879
式	-11880
弔	-11881
役	-11882
必	-11883
新	-11884
月	-11885
李	-11886
母	-11887
比	-11888
稅	-11889
羅	-11890
親	-11891
謹	-11892
證	-11893
갖	-11894
갱	-11895
겪	-11896
곁	-11897
곱	-11898
괄	-11899
괜	-11900
굉	-11901
궈	-11902
긋	-11903
깁	-11904
깐	-11905
깡	-11906
깬	-11907
깰	-11908
깼	-11909
꺽	-11910
꼈	-11911
꼼	-11912
꾀	-11913
꿀	-11914
꿇	-11915
꿨	-11916
뀐	-11917
낫	-11918
낯	-11919
낵	-11920
넜	-11921
녁	-11922
녕	-11923
놋	-11924
놨	-11925
뇨	-11926
눠	-11927
눴	-11928
닐	-11929
닦	-11930
닮	-11931
닻	-11932
덫	-11933
뎀	-11934
뎌	-11935
뎠	-11936
돋	-11937
돔	-11938
둠	-11939
둡	-11940
둬	-11941
뒀	-11942
듣	-11943
딘	-11944
딛	-11945
딧	-11946
딨	-11947
딪	-11948
땠	-11949
떄	-11950
똑	-11951
똥	-11952
뛸	-11953
뜬	-11954
띠	-11955
랍	-11956
랠	-11957
랬	-11958
렛	-11959
룬	-11960
륵	-11961
릎	-11962
릿	-11963
멤	-11964
멩	-11965
멱	-11966
몇	-11967
묀	-11968
뭉	-11969
뭔	-11970
뭘	-11971
뮌	-11972
벚	-11973
붕	-11974
븐	-11975
빕	-11976
빴	-11977
뺀	-11978
뺌	-11979
뼈	-11980
뿔	-11981
삽	-11982
샬	-11983
샴	-11984
셨	-11985
솜	-11986
솥	-11987
숟	-11988
숫	-11989
숭	-11990
쉴	-11991
쉼	-11992
